#include "network_multitest_data.h"

ai_handle ai_network_multitest_data_weights_get(void)
{

  AI_ALIGNED(4)
  static const ai_u8 s_network_multitest_weights[ 11368 ] = {
    0xc8, 0xab, 0x62, 0xbe, 0x6d, 0x0c, 0x77, 0x3e, 0xf1, 0x8e,
    0x46, 0xbe, 0xe7, 0x4d, 0x03, 0xbf, 0x83, 0x6e, 0xce, 0x3e,
    0xe9, 0xe5, 0xbc, 0xbe, 0x14, 0x19, 0xcd, 0xba, 0xb0, 0xc7,
    0x91, 0x3e, 0x92, 0x4e, 0xe1, 0x3e, 0x58, 0xc8, 0x0a, 0x3f,
    0x0b, 0x54, 0x96, 0x3d, 0x68, 0x6a, 0xe9, 0xbe, 0x4d, 0xd8,
    0x73, 0x3d, 0xf5, 0xf3, 0x4b, 0xbe, 0x4e, 0xc5, 0x92, 0xbe,
    0x01, 0x30, 0x29, 0xbe, 0xbe, 0x98, 0x0b, 0xbe, 0x90, 0x55,
    0xec, 0x3e, 0x6a, 0x27, 0xaa, 0xbd, 0x80, 0x10, 0x19, 0x3e,
    0x1e, 0x62, 0x90, 0x3d, 0x3d, 0x02, 0xc3, 0xbd, 0x92, 0x5b,
    0x99, 0x3d, 0x29, 0xa0, 0x37, 0x3e, 0xdc, 0xd0, 0x29, 0xbe,
    0x9d, 0xc9, 0xf7, 0x3d, 0xaa, 0xa2, 0xf9, 0xbc, 0x7c, 0xb9,
    0x1a, 0xbe, 0x92, 0x69, 0x2a, 0xbe, 0x19, 0x7c, 0x54, 0xbe,
    0xda, 0x41, 0x13, 0xbd, 0xbf, 0x95, 0x4c, 0x3e, 0x2c, 0x28,
    0xc3, 0x3c, 0xe1, 0xbc, 0xab, 0x3d, 0x07, 0xb7, 0xbb, 0x3d,
    0x1f, 0x5b, 0xab, 0x3d, 0xee, 0xc2, 0x54, 0x3d, 0x10, 0x21,
    0x03, 0xbe, 0xfb, 0x5e, 0x32, 0x3b, 0x05, 0xd6, 0x14, 0xbd,
    0x7d, 0x4b, 0x26, 0x3d, 0x20, 0x40, 0xcc, 0xbe, 0x97, 0x4b,
    0x5c, 0x3e, 0x6f, 0xc2, 0xcd, 0x3e, 0xf4, 0x94, 0x7d, 0xbe,
    0x36, 0x4b, 0xa7, 0x3e, 0x1d, 0x4b, 0x6f, 0xbd, 0x0c, 0xfa,
    0xa6, 0x3e, 0xcd, 0xb8, 0x38, 0xbe, 0xc6, 0x3b, 0xdf, 0x3d,
    0xfb, 0x3d, 0xc0, 0xbd, 0xfc, 0x39, 0x86, 0x3e, 0xf4, 0x80,
    0xd8, 0xbd, 0xc6, 0x4e, 0x68, 0xbe, 0x95, 0xb8, 0x87, 0x3e,
    0xd2, 0xfc, 0x72, 0x3e, 0x74, 0xc0, 0xf3, 0x3e, 0x83, 0xd1,
    0x9d, 0x3e, 0x75, 0xcd, 0x4f, 0x3e, 0x9d, 0x19, 0x12, 0x3e,
    0x25, 0x60, 0x9e, 0x3c, 0x99, 0xad, 0xd6, 0x3e, 0x25, 0x42,
    0xfe, 0xbd, 0xd5, 0x72, 0x39, 0x3c, 0x00, 0xae, 0x52, 0xbe,
    0xc5, 0x99, 0xcb, 0xbe, 0x97, 0x2e, 0xf7, 0x3d, 0x20, 0xe4,
    0x38, 0x3e, 0xde, 0xe2, 0x07, 0x3d, 0x12, 0xa1, 0xdd, 0xbc,
    0x01, 0x74, 0x5f, 0x3d, 0xcb, 0xcf, 0x95, 0xbd, 0x1c, 0xa8,
    0xcb, 0x3d, 0x44, 0x4e, 0x9e, 0xbe, 0xef, 0x6f, 0x89, 0xbe,
    0x95, 0xd6, 0x82, 0xbe, 0x97, 0xb7, 0x63, 0xbd, 0x5e, 0xd2,
    0x67, 0x3e, 0xf8, 0x58, 0x38, 0x3e, 0xcd, 0xda, 0xcb, 0xbd,
    0xaa, 0x86, 0xe5, 0xbe, 0x5e, 0x8b, 0x8d, 0xbe, 0x6f, 0xb3,
    0x37, 0xbe, 0xf5, 0x5a, 0xa7, 0x3d, 0x92, 0x7f, 0xaf, 0x3d,
    0x94, 0x06, 0x5d, 0x3c, 0x61, 0xb7, 0xaa, 0x3e, 0x38, 0x1f,
    0xb8, 0xbd, 0xe8, 0xc6, 0x41, 0xbe, 0x6a, 0x46, 0x52, 0x3d,
    0x6b, 0xbd, 0x73, 0x3e, 0xfe, 0x0e, 0x3a, 0x3e, 0x29, 0x19,
    0x2d, 0xbe, 0xaa, 0x6d, 0xb4, 0xbd, 0x0b, 0xde, 0xae, 0xbe,
    0xb4, 0xe2, 0x89, 0xbd, 0xa9, 0xa1, 0x67, 0xbe, 0xd9, 0x4c,
    0x4c, 0xbd, 0xfb, 0x44, 0x1c, 0x3d, 0x7b, 0xa9, 0xa7, 0x3e,
    0x16, 0x23, 0x36, 0xbe, 0x68, 0x8d, 0x9d, 0xbe, 0x76, 0xe7,
    0x44, 0xbc, 0x39, 0x8a, 0xa2, 0x3e, 0x6a, 0x5c, 0x3c, 0xbd,
    0xa4, 0x7a, 0x92, 0x38, 0x7f, 0x05, 0x42, 0xbd, 0xc2, 0x4e,
    0x94, 0xbe, 0x4f, 0xa2, 0x67, 0xbe, 0xb9, 0xe8, 0xc1, 0xbe,
    0xe6, 0x90, 0x97, 0xbe, 0xc6, 0xe4, 0xa8, 0xbe, 0x21, 0xbc,
    0x56, 0xbe, 0xfa, 0x99, 0x58, 0x3e, 0xad, 0x2f, 0xb9, 0xbe,
    0x65, 0xb1, 0xc5, 0x3e, 0x16, 0xfc, 0x4f, 0xbe, 0x2f, 0xd6,
    0x5f, 0xbe, 0x06, 0x70, 0x0f, 0xbe, 0xf8, 0x33, 0x8d, 0xbe,
    0x39, 0x57, 0xa8, 0xbe, 0x11, 0xb9, 0x7d, 0x3d, 0x10, 0x9c,
    0x30, 0x3e, 0x05, 0x41, 0xbe, 0xbe, 0xdc, 0xa9, 0x95, 0xbe,
    0x92, 0xff, 0xac, 0x3d, 0xb6, 0xd0, 0xcb, 0x3d, 0x2b, 0x6b,
    0xb6, 0x3e, 0xf5, 0x01, 0xaf, 0x3e, 0xa3, 0x09, 0x1e, 0xbc,
    0x90, 0x01, 0x96, 0x3c, 0xa3, 0x8d, 0x69, 0x3e, 0xd6, 0x43,
    0x05, 0xbe, 0xab, 0x28, 0xae, 0xbe, 0x29, 0x5f, 0x13, 0xbd,
    0xb3, 0x3d, 0x80, 0xbe, 0xda, 0x25, 0x17, 0xbe, 0x51, 0xef,
    0x3d, 0x3e, 0xe4, 0xe2, 0x82, 0xbe, 0x6b, 0x06, 0x20, 0x3c,
    0x5c, 0xb9, 0xdc, 0xbd, 0xf9, 0x55, 0x93, 0xbe, 0x3d, 0x29,
    0x82, 0xbe, 0xe9, 0xc9, 0x84, 0x3e, 0xd1, 0x4c, 0x2c, 0x3e,
    0x15, 0x60, 0x10, 0xbe, 0x91, 0xf9, 0x42, 0x3e, 0xc2, 0x05,
    0x9d, 0xbe, 0xd2, 0x9f, 0x2c, 0xbe, 0xd1, 0x40, 0xcb, 0x3e,
    0xde, 0xe4, 0x0c, 0x3e, 0x36, 0x6b, 0x9a, 0xbe, 0xd3, 0x4b,
    0x7a, 0xbe, 0x96, 0x37, 0xb9, 0x3c, 0x63, 0x90, 0xbe, 0x3e,
    0xc0, 0x60, 0x8e, 0xbe, 0xdd, 0x48, 0xd2, 0x3d, 0x37, 0x3f,
    0x84, 0x3e, 0xb4, 0x80, 0x8c, 0x3e, 0xc8, 0xee, 0x70, 0xbe,
    0xb7, 0x47, 0x25, 0x3d, 0x6c, 0x88, 0xbe, 0x3e, 0xc9, 0xfc,
    0x0e, 0xbe, 0xb7, 0xdf, 0x14, 0xbe, 0xe9, 0x08, 0xd3, 0x3e,
    0x10, 0xef, 0x53, 0x3e, 0x19, 0xb7, 0xa2, 0xbd, 0x52, 0xe9,
    0xd5, 0x3e, 0x35, 0x9d, 0x8a, 0xbd, 0xf6, 0x46, 0xcb, 0x3e,
    0x7a, 0x0c, 0x1e, 0xbc, 0x40, 0x47, 0xaf, 0xbe, 0xa2, 0xd2,
    0x8b, 0xbe, 0xab, 0x24, 0x2c, 0x3e, 0xd3, 0x08, 0xd9, 0xbd,
    0x71, 0x9c, 0x2b, 0xbe, 0x74, 0x9c, 0xef, 0xbc, 0xdf, 0x42,
    0x94, 0x3e, 0x65, 0xbe, 0xb6, 0x3d, 0x27, 0x3c, 0xc4, 0x3e,
    0x8a, 0x77, 0xac, 0x3b, 0xd7, 0x85, 0x7f, 0x3e, 0x38, 0xc6,
    0x42, 0xbd, 0xd5, 0xa7, 0xd7, 0xbe, 0xbd, 0xd1, 0x97, 0xbd,
    0xbb, 0xed, 0x9f, 0xbe, 0x08, 0x32, 0x47, 0x3d, 0xa6, 0x73,
    0x68, 0x3d, 0xea, 0x35, 0x7b, 0x3e, 0x10, 0x62, 0xbf, 0xbe,
    0x94, 0xba, 0x60, 0x3e, 0xdc, 0xd6, 0x8b, 0x3c, 0xc6, 0x6c,
    0x6b, 0xbe, 0xc4, 0x91, 0x87, 0x3e, 0x41, 0x59, 0x68, 0x3e,
    0xdf, 0x1b, 0x2d, 0x3e, 0xc6, 0x6b, 0x12, 0xbe, 0x8d, 0x28,
    0xcb, 0xbe, 0xd2, 0x7c, 0x66, 0xbe, 0xe6, 0x6e, 0xb4, 0xbd,
    0xa6, 0x74, 0x8b, 0x3d, 0x40, 0x94, 0xab, 0x3e, 0xd6, 0x4d,
    0x54, 0xbe, 0xfb, 0xdb, 0xcb, 0xbe, 0x2e, 0x5f, 0xad, 0x3e,
    0x1c, 0x99, 0x3f, 0xbe, 0x8d, 0x1f, 0x83, 0xbe, 0x33, 0x87,
    0x17, 0x3e, 0x7a, 0x97, 0x47, 0x3e, 0x7a, 0xdc, 0xb1, 0x3d,
    0xe0, 0x10, 0x20, 0xbe, 0x53, 0xed, 0x84, 0xbe, 0x3b, 0xf5,
    0xa7, 0x3e, 0x51, 0x22, 0x9a, 0xbe, 0xc3, 0x7e, 0x4a, 0xbe,
    0x77, 0xbc, 0xa9, 0xbe, 0x1d, 0x98, 0xcf, 0xbe, 0x3c, 0xcb,
    0x2e, 0xbe, 0xb8, 0x09, 0x5d, 0x3b, 0x7a, 0x6f, 0xad, 0x3e,
    0x12, 0xc9, 0xf3, 0xbd, 0xf2, 0x92, 0x3d, 0x3d, 0x19, 0x18,
    0x7b, 0x3e, 0x20, 0x03, 0x93, 0xbe, 0x3e, 0x61, 0x9d, 0x3e,
    0x15, 0x93, 0x48, 0x3e, 0xb8, 0xca, 0x50, 0x3e, 0x53, 0x43,
    0xd4, 0xbc, 0xf1, 0xd5, 0x20, 0x3e, 0xb9, 0x79, 0x63, 0x3e,
    0x89, 0x4b, 0xe9, 0x3d, 0x85, 0x86, 0x38, 0xbe, 0xe6, 0x80,
    0xde, 0xbd, 0x42, 0x71, 0x84, 0xbe, 0x2d, 0x20, 0xb2, 0xbe,
    0x48, 0x97, 0x4e, 0xbe, 0x75, 0x65, 0x2e, 0x3c, 0x54, 0x5f,
    0xbb, 0x3d, 0x6d, 0x8e, 0x52, 0x3e, 0xa9, 0xd0, 0xbf, 0xbd,
    0x51, 0x8d, 0xca, 0x3e, 0x13, 0x0d, 0xdf, 0xbe, 0xcf, 0x5d,
    0x89, 0x3c, 0x55, 0xe6, 0xda, 0x3e, 0x0f, 0xab, 0xd0, 0xbe,
    0xac, 0x37, 0x7b, 0xbe, 0xa5, 0x4d, 0x51, 0x3d, 0xee, 0x6b,
    0x70, 0x3e, 0x4c, 0x86, 0x57, 0xbe, 0xef, 0xfc, 0x9d, 0xbe,
    0x17, 0x92, 0x4f, 0x3e, 0x4b, 0xe3, 0xf2, 0x3e, 0x42, 0x0d,
    0x92, 0x3d, 0xb7, 0x81, 0xcf, 0x3e, 0xfd, 0x7c, 0xdf, 0x3e,
    0xff, 0x17, 0x82, 0xbd, 0x3e, 0x48, 0xfb, 0x3d, 0x0b, 0xc8,
    0xb7, 0x3d, 0x18, 0xb2, 0x70, 0x3c, 0xd9, 0xf5, 0xd3, 0xbe,
    0x13, 0x8d, 0x65, 0xbe, 0xa3, 0x0c, 0x5e, 0xbe, 0x75, 0xdb,
    0x24, 0xbe, 0x3b, 0x5e, 0x1b, 0x3d, 0xf3, 0xd3, 0x8a, 0xbd,
    0xa0, 0x3f, 0x4a, 0xbd, 0x66, 0x94, 0x11, 0x3e, 0x88, 0x11,
    0x9e, 0x3e, 0xdf, 0x55, 0x69, 0xbe, 0x1c, 0xf9, 0xbf, 0x3e,
    0xd5, 0x2d, 0x1f, 0x3d, 0xbf, 0x2f, 0xb0, 0x3e, 0x90, 0xe4,
    0x56, 0x3e, 0xbf, 0x72, 0x9a, 0xbe, 0xc4, 0xcd, 0x8c, 0x3d,
    0x61, 0x77, 0x35, 0x3e, 0xdc, 0x83, 0xb8, 0x3e, 0x1f, 0x39,
    0x09, 0xbe, 0xb3, 0xd1, 0x29, 0x3d, 0x0c, 0x40, 0x68, 0x3e,
    0x4f, 0x8b, 0x89, 0xbd, 0xc3, 0xfa, 0xa7, 0x3e, 0xff, 0x7b,
    0x66, 0x3e, 0x44, 0xa1, 0xe8, 0xbe, 0x53, 0xd4, 0xe9, 0xbd,
    0x4d, 0x74, 0xcd, 0x3d, 0x96, 0x13, 0x65, 0x3c, 0x36, 0xba,
    0x3c, 0x3e, 0x8c, 0x8d, 0xdb, 0xbe, 0x3c, 0x7a, 0xb7, 0xbe,
    0x1c, 0xdc, 0xc2, 0x3e, 0x00, 0x2f, 0x22, 0x3e, 0x1f, 0x33,
    0x2f, 0x3e, 0xdd, 0x29, 0xcf, 0x3d, 0xb2, 0xe2, 0x99, 0x3e,
    0x1a, 0x7a, 0xae, 0x3d, 0xf7, 0x7c, 0x36, 0xba, 0x6b, 0x03,
    0x0c, 0x3e, 0xa8, 0x45, 0x8e, 0xbe, 0xa9, 0x39, 0x98, 0xbe,
    0xf8, 0x42, 0x3c, 0x3e, 0x84, 0xf4, 0x5b, 0xbe, 0x47, 0xb5,
    0x06, 0x3c, 0xd1, 0x73, 0x1d, 0xbe, 0xe5, 0x5a, 0xea, 0xbd,
    0xda, 0x99, 0x32, 0x3e, 0xd2, 0x51, 0xa6, 0x3e, 0x40, 0x7a,
    0xab, 0x3e, 0xca, 0x03, 0x0d, 0xbe, 0x82, 0x4c, 0x1d, 0x3e,
    0x95, 0x22, 0x8f, 0xbe, 0xf9, 0xe6, 0xaa, 0xbe, 0xff, 0xf1,
    0x48, 0x3e, 0x88, 0x6f, 0xcf, 0xbd, 0x02, 0x42, 0x7b, 0xbe,
    0x6a, 0x97, 0xaf, 0xbe, 0xf6, 0xa5, 0x4d, 0x3c, 0x07, 0xaa,
    0xb9, 0x3e, 0xde, 0x8f, 0xe2, 0x3d, 0x86, 0x30, 0xef, 0xbd,
    0x0b, 0x90, 0xa3, 0xbe, 0x58, 0x9c, 0x81, 0xbe, 0xa0, 0x03,
    0xc0, 0x3d, 0x35, 0x44, 0xd2, 0xbe, 0x38, 0xb3, 0xdb, 0xbd,
    0x03, 0xc8, 0xac, 0x3e, 0x69, 0x52, 0x41, 0xbd, 0xcc, 0xb2,
    0x0b, 0xbe, 0xc3, 0x41, 0xc2, 0xbe, 0xdf, 0xa3, 0x1a, 0x3e,
    0x19, 0x06, 0xd1, 0x3c, 0x0b, 0x55, 0x5f, 0x3d, 0x8f, 0xcf,
    0xbf, 0xbe, 0x48, 0xa3, 0x7b, 0x3d, 0xed, 0x9e, 0x75, 0x3e,
    0x1a, 0xbb, 0xe8, 0xbe, 0xcb, 0xa6, 0xac, 0x3e, 0x25, 0xf1,
    0x5b, 0x3e, 0x2c, 0x29, 0xbf, 0xbe, 0x9b, 0xd7, 0x1e, 0x3d,
    0x80, 0x40, 0x85, 0xbe, 0xae, 0x5e, 0x63, 0x3e, 0x16, 0x9b,
    0xb6, 0x3c, 0xcc, 0xf9, 0x60, 0xbe, 0x10, 0xac, 0x95, 0xbe,
    0x79, 0xaf, 0x51, 0x3e, 0xb5, 0x04, 0x0d, 0xbe, 0x0c, 0xd7,
    0x9a, 0x3e, 0x9b, 0x56, 0xd7, 0xbe, 0x8a, 0xa2, 0x77, 0x3e,
    0x07, 0x6c, 0x9e, 0xbe, 0xd4, 0x77, 0x8a, 0x3e, 0xae, 0x2f,
    0xb6, 0xbc, 0xf3, 0x22, 0xf7, 0x3d, 0x69, 0x2f, 0x01, 0x3e,
    0xda, 0xc6, 0x87, 0xbe, 0x32, 0x8c, 0x72, 0x3e, 0xd0, 0xf1,
    0xc7, 0xbe, 0x58, 0xe0, 0x47, 0x3e, 0xbd, 0x00, 0x1e, 0x3e,
    0xf0, 0x15, 0x9d, 0xbe, 0x1a, 0x42, 0x70, 0x3e, 0xdf, 0x94,
    0xcf, 0xbe, 0x83, 0xbe, 0xcd, 0xbe, 0x93, 0x2f, 0x85, 0xbe,
    0x1e, 0xb1, 0x25, 0x3d, 0x13, 0x2f, 0xa5, 0xbe, 0x6c, 0x7f,
    0x31, 0x3e, 0x5e, 0x8c, 0x43, 0x3e, 0x8d, 0x30, 0xc3, 0xbd,
    0x6c, 0x5e, 0x92, 0x3e, 0x80, 0xfd, 0xb2, 0x3e, 0xf1, 0xd5,
    0xdf, 0x3d, 0x61, 0x9d, 0xab, 0x3e, 0xd0, 0x45, 0x57, 0x3e,
    0xcd, 0x5d, 0x7b, 0xbe, 0xe3, 0x5d, 0xb3, 0x3d, 0x4e, 0x8a,
    0x32, 0xbe, 0x40, 0x8c, 0x3c, 0xbd, 0xf4, 0xc9, 0x54, 0xbe,
    0x73, 0xbe, 0x28, 0xbe, 0x10, 0xfc, 0x08, 0x3c, 0xc1, 0xf8,
    0xa2, 0xbe, 0xd5, 0x7e, 0x6e, 0xbc, 0x47, 0x86, 0x5d, 0x3c,
    0x7d, 0x2b, 0x37, 0xbe, 0x8b, 0xe2, 0x41, 0x3d, 0x10, 0x46,
    0x92, 0xbd, 0xce, 0x2a, 0xd2, 0x3d, 0xf8, 0xa3, 0x01, 0xbe,
    0xe4, 0x4c, 0xb5, 0xbd, 0x28, 0xf3, 0xb9, 0xbd, 0xd6, 0x87,
    0x6b, 0x3e, 0xbe, 0xd3, 0x33, 0x3b, 0x9f, 0xe4, 0xae, 0xbe,
    0x67, 0x99, 0x9d, 0x3d, 0x4b, 0x89, 0x78, 0xbe, 0x96, 0xe2,
    0x7a, 0x3e, 0xb8, 0x54, 0xc8, 0xbe, 0x09, 0x93, 0x1f, 0xbe,
    0x31, 0x1e, 0x18, 0xbe, 0xb2, 0x01, 0x98, 0x3d, 0x50, 0xbe,
    0xc8, 0xbd, 0x83, 0xe2, 0x93, 0xbc, 0xe6, 0x64, 0xbd, 0xbe,
    0xc9, 0xa4, 0x58, 0x3e, 0x56, 0xa1, 0x76, 0xbd, 0xbb, 0xea,
    0xab, 0x3e, 0x77, 0x70, 0x3d, 0xbe, 0x17, 0x47, 0x02, 0x3f,
    0xa2, 0x74, 0x8b, 0x3e, 0xa2, 0xdd, 0xce, 0x3e, 0xe5, 0xb5,
    0x95, 0x3d, 0x62, 0x2d, 0xdf, 0x3d, 0x2a, 0x43, 0xc1, 0x3e,
    0x62, 0x53, 0x34, 0x3d, 0x3b, 0xe0, 0xa0, 0x3c, 0xf3, 0x08,
    0x8b, 0xbe, 0xd1, 0x70, 0x63, 0x3d, 0x46, 0x2f, 0x79, 0xbe,
    0xf9, 0x5d, 0xcc, 0x3d, 0x81, 0x51, 0x17, 0xba, 0xae, 0x0d,
    0x82, 0x3e, 0xc2, 0x34, 0xa0, 0xbb, 0x60, 0x3d, 0xba, 0xbc,
    0x32, 0x66, 0x20, 0x3e, 0x35, 0x8e, 0x6d, 0xbe, 0x8c, 0x0a,
    0xa3, 0x3e, 0xfb, 0xea, 0x99, 0x3e, 0xb0, 0x49, 0xc8, 0xbc,
    0xaa, 0x37, 0x8b, 0x3e, 0x89, 0x20, 0x13, 0x3e, 0xf6, 0xab,
    0x9a, 0xbe, 0x35, 0xce, 0x43, 0xbd, 0xd7, 0xfd, 0xa0, 0xbe,
    0x32, 0x60, 0x31, 0xbe, 0xe3, 0xd5, 0xc2, 0xbe, 0xbb, 0xcf,
    0xb5, 0x3e, 0xa6, 0x0c, 0x25, 0xbc, 0xce, 0x7a, 0x74, 0xbd,
    0xe8, 0x3b, 0x44, 0x3d, 0x22, 0xd0, 0xa0, 0xbd, 0xb8, 0xf5,
    0x20, 0xbe, 0x92, 0xbc, 0xc0, 0x3d, 0x82, 0xd1, 0x44, 0xbd,
    0xff, 0xc5, 0xa5, 0xbd, 0x93, 0x98, 0x94, 0xbd, 0x6f, 0xe0,
    0x28, 0xbd, 0xcf, 0xf0, 0xe7, 0xbd, 0xc7, 0x1b, 0xd5, 0xbc,
    0xc1, 0x44, 0xd2, 0xbc, 0xb4, 0x42, 0x2e, 0x3d, 0x25, 0x40,
    0xbe, 0xbb, 0xa5, 0x77, 0x03, 0xbe, 0xd2, 0x5c, 0x50, 0xbd,
    0x5a, 0x63, 0x07, 0xbc, 0x4d, 0x7a, 0x0a, 0xbd, 0xd9, 0xc6,
    0xb5, 0xbd, 0x3f, 0x05, 0x80, 0xbd, 0x52, 0x8f, 0xa5, 0xbc,
    0xcd, 0xff, 0x4b, 0x3e, 0x00, 0xfd, 0x20, 0x3e, 0x0a, 0x80,
    0xbb, 0xbc, 0xe5, 0x74, 0xeb, 0x3d, 0x0e, 0x49, 0x9a, 0x3e,
    0x99, 0x83, 0xa1, 0xbe, 0x2d, 0x74, 0x95, 0x3e, 0x18, 0x42,
    0xbf, 0xbb, 0x96, 0xdc, 0x65, 0x3e, 0xb2, 0x14, 0x82, 0xbe,
    0x99, 0x48, 0x10, 0x3f, 0x5c, 0xf1, 0xa0, 0xbe, 0x00, 0x12,
    0xc9, 0xbd, 0xfb, 0xc1, 0x1d, 0x3e, 0x5b, 0xe1, 0xc2, 0xbd,
    0x54, 0x9d, 0x45, 0x3e, 0xd1, 0x5e, 0x04, 0xbe, 0xd2, 0x60,
    0x63, 0x3e, 0xab, 0x21, 0xb3, 0x3d, 0xc7, 0x22, 0xe2, 0xbd,
    0x67, 0xb2, 0x02, 0x3f, 0x5b, 0x64, 0xa4, 0xbe, 0xda, 0x9e,
    0xa0, 0xbe, 0x33, 0x4a, 0xe8, 0xbd, 0xec, 0xcc, 0x99, 0xbe,
    0x05, 0x06, 0x2a, 0x3e, 0x99, 0xd2, 0x8b, 0xbe, 0x9d, 0x0b,
    0x6a, 0xbe, 0xd3, 0xab, 0x3c, 0xbc, 0xa2, 0x68, 0x20, 0xbe,
    0x8d, 0x0e, 0xa5, 0x3e, 0x59, 0xbc, 0x53, 0x3e, 0x20, 0x27,
    0xb7, 0x3e, 0x00, 0x7e, 0x3c, 0x3e, 0x0e, 0xe5, 0xa1, 0x3d,
    0xc4, 0xfc, 0x19, 0xbe, 0xca, 0x16, 0x92, 0xbe, 0xbb, 0xff,
    0x38, 0xbe, 0x31, 0x1c, 0xab, 0xbd, 0x24, 0x90, 0xb0, 0xbe,
    0x71, 0x81, 0x58, 0x3d, 0xb9, 0x3f, 0x0d, 0xbe, 0x85, 0x30,
    0x22, 0xbd, 0x91, 0xe7, 0x77, 0x3e, 0xd3, 0xb9, 0xb3, 0xbe,
    0x0d, 0x68, 0x96, 0x3e, 0x92, 0xd4, 0xb0, 0xbe, 0xd7, 0x3f,
    0x2c, 0x3e, 0x53, 0x0c, 0x91, 0x3e, 0x00, 0x44, 0x84, 0x3e,
    0x68, 0x6f, 0xad, 0xbc, 0xc2, 0xb2, 0x4a, 0xbe, 0x24, 0xfb,
    0xb2, 0xbd, 0xd9, 0xca, 0x79, 0x3e, 0x49, 0x42, 0x71, 0x3e,
    0xc0, 0x56, 0x80, 0xbd, 0xfb, 0xd7, 0x6a, 0x3c, 0xea, 0x46,
    0xa8, 0x3e, 0xf6, 0x46, 0x88, 0x3e, 0xf9, 0x22, 0x96, 0xbe,
    0xdc, 0x80, 0x91, 0x3e, 0x3b, 0x0b, 0xd2, 0x3d, 0x32, 0xca,
    0x54, 0xbd, 0x72, 0x7b, 0x06, 0xbd, 0xd3, 0x55, 0x42, 0xbe,
    0x4b, 0x0e, 0x09, 0xbe, 0x0d, 0x35, 0x4f, 0x3e, 0x6d, 0x25,
    0x07, 0xbe, 0xf6, 0xc1, 0x8b, 0x3e, 0x27, 0x9c, 0xb0, 0xbe,
    0xd9, 0xd4, 0xa0, 0xbd, 0xc1, 0xe5, 0xf5, 0xbc, 0x54, 0xd4,
    0xde, 0xbc, 0xa4, 0x4d, 0xc5, 0xbe, 0xc6, 0x21, 0x9b, 0xbe,
    0x55, 0xe6, 0x32, 0x3e, 0x35, 0xbd, 0x50, 0x3e, 0xbb, 0x38,
    0x7a, 0x3e, 0x5a, 0xb4, 0x2a, 0x3c, 0xe4, 0x10, 0x93, 0xbb,
    0xa1, 0x5a, 0x0e, 0xbe, 0x6e, 0xba, 0x21, 0xbd, 0x41, 0x24,
    0xcd, 0x3e, 0xa2, 0x67, 0xae, 0xbd, 0x6b, 0x6a, 0x45, 0xbe,
    0x6e, 0x50, 0x93, 0xbe, 0xfe, 0x1f, 0x42, 0x3e, 0x8c, 0xdb,
    0xf6, 0xbd, 0x68, 0x25, 0x2b, 0x3d, 0xb7, 0xf2, 0x17, 0xbe,
    0x2d, 0x56, 0x2f, 0xbe, 0x4e, 0x52, 0x91, 0xbe, 0x56, 0x3f,
    0x26, 0x3c, 0xee, 0xad, 0x2c, 0x3e, 0xdf, 0x6b, 0x0f, 0xbc,
    0x5e, 0xd6, 0x28, 0xbe, 0xa0, 0x6e, 0x76, 0x3e, 0x34, 0x18,
    0x54, 0x3e, 0xe9, 0xe8, 0xff, 0x3c, 0x64, 0xde, 0x52, 0xbe,
    0x28, 0xa1, 0x24, 0xbd, 0xbc, 0xc6, 0xb2, 0xbd, 0x70, 0x20,
    0x75, 0x3d, 0x20, 0x2f, 0x33, 0x3e, 0x14, 0xd5, 0x97, 0x3e,
    0x8f, 0x51, 0x64, 0xbe, 0xc9, 0x7d, 0x82, 0x3e, 0x33, 0xce,
    0x78, 0x3e, 0x96, 0x6c, 0x66, 0xbe, 0x69, 0xc8, 0xab, 0xbd,
    0xd6, 0x3e, 0x0c, 0x3e, 0x3b, 0x6d, 0x2e, 0x3e, 0x99, 0xce,
    0xf7, 0xbd, 0x8f, 0x7e, 0x9d, 0x3e, 0x8f, 0x6d, 0x8e, 0x3e,
    0xc0, 0xc7, 0x39, 0x3b, 0xd6, 0xd4, 0x91, 0x3e, 0x5e, 0x94,
    0x4e, 0xbe, 0xa7, 0xb3, 0x92, 0x3d, 0xc1, 0x32, 0xa6, 0x3e,
    0x89, 0xf9, 0xfb, 0x3e, 0xf9, 0xb3, 0x22, 0xbe, 0xd7, 0x23,
    0xd8, 0x3e, 0xea, 0x91, 0xf3, 0x3e, 0xe8, 0xdb, 0xb3, 0x3e,
    0x01, 0x34, 0xdb, 0x3e, 0x69, 0x0b, 0xb3, 0xbe, 0x68, 0x27,
    0xa9, 0x3e, 0x20, 0xbf, 0x9f, 0xbe, 0x27, 0x08, 0x9f, 0xbe,
    0x7a, 0x29, 0x40, 0xbe, 0x18, 0x19, 0x90, 0x3e, 0x6a, 0x76,
    0xc5, 0x3e, 0xd4, 0x95, 0x8b, 0xbd, 0x6c, 0xe1, 0x0f, 0x3f,
    0x97, 0xba, 0x17, 0x3f, 0xf7, 0x37, 0xd1, 0x3e, 0x4c, 0xdc,
    0x58, 0xbe, 0xe4, 0x06, 0x42, 0x3f, 0xe0, 0x1f, 0x15, 0xbe,
    0xb4, 0xf4, 0xc2, 0x3d, 0x35, 0xc6, 0xac, 0x3e, 0xd2, 0x31,
    0x56, 0x3d, 0xae, 0xf6, 0x07, 0x3e, 0x35, 0x1b, 0x5d, 0xbd,
    0x3b, 0xb7, 0x61, 0xbd, 0x65, 0x30, 0xb1, 0x3d, 0x93, 0x6d,
    0x63, 0x3b, 0xc0, 0x5f, 0x9d, 0x3e, 0x89, 0x57, 0x6c, 0x3c,
    0xc9, 0x0e, 0xf1, 0x3e, 0x59, 0xd4, 0x4e, 0x3d, 0xa4, 0x47,
    0x82, 0xbc, 0xa6, 0xc4, 0xb6, 0xba, 0x0e, 0xed, 0x0b, 0xbe,
    0x46, 0x20, 0x49, 0x3e, 0x2f, 0xb6, 0xdf, 0xbd, 0x55, 0x64,
    0xa9, 0x3e, 0x21, 0x1f, 0xb0, 0x3e, 0xd1, 0xa7, 0x99, 0xbe,
    0xa3, 0xd6, 0xbe, 0xbe, 0xf1, 0x48, 0xa6, 0x3e, 0x1b, 0x7b,
    0x17, 0xbd, 0x1c, 0x59, 0xbf, 0xbe, 0xfe, 0xe0, 0xcc, 0xbe,
    0xba, 0xf3, 0xc1, 0x3e, 0xaa, 0x60, 0xbb, 0xbe, 0xd7, 0x71,
    0x26, 0xbe, 0xaa, 0x0c, 0xba, 0xbd, 0x58, 0x41, 0x92, 0xbe,
    0x10, 0xe4, 0x09, 0xbe, 0xb9, 0x02, 0x70, 0x3e, 0x32, 0x93,
    0x94, 0x3e, 0x07, 0x68, 0x0e, 0x3e, 0x4f, 0x53, 0xcc, 0xbe,
    0x13, 0x52, 0xf5, 0xbc, 0xcc, 0xbe, 0x6f, 0x3e, 0x38, 0xe9,
    0x27, 0xbe, 0x76, 0xcc, 0xc4, 0x3c, 0x22, 0x19, 0xb2, 0x3e,
    0x90, 0x4d, 0x12, 0x3e, 0xa0, 0xa0, 0x42, 0x3e, 0x2e, 0x96,
    0x93, 0xbd, 0x35, 0x3e, 0xd4, 0x3d, 0x43, 0x1e, 0x82, 0xbe,
    0x6c, 0xdd, 0x4d, 0xbb, 0xae, 0xb5, 0x22, 0x3e, 0xaf, 0x2a,
    0x4e, 0xbc, 0x8a, 0x51, 0x9f, 0x3d, 0x5e, 0x8c, 0x68, 0x3e,
    0x39, 0x77, 0x7e, 0x3e, 0xd0, 0x29, 0x99, 0xbe, 0x4e, 0x75,
    0x81, 0xbe, 0xe5, 0x48, 0xb5, 0x3e, 0x64, 0xb8, 0x57, 0x3e,
    0xec, 0xed, 0x82, 0xbe, 0x25, 0x73, 0xd7, 0x3d, 0xda, 0x6b,
    0x9f, 0xbe, 0x06, 0xe9, 0x5f, 0x3e, 0xf9, 0x51, 0x45, 0xbe,
    0x6d, 0x6a, 0x9f, 0xbe, 0x4a, 0x0f, 0x8e, 0x3d, 0x7a, 0xe1,
    0x9e, 0xbd, 0x56, 0x39, 0x6f, 0xbe, 0xbf, 0xb2, 0xd8, 0xbd,
    0x94, 0xe5, 0x99, 0x3b, 0x11, 0x36, 0xa4, 0xbe, 0xb0, 0x47,
    0x63, 0x3e, 0xb6, 0xdc, 0xac, 0xbd, 0x8b, 0xd9, 0xc9, 0x3e,
    0x77, 0xcd, 0xb6, 0x3c, 0xd2, 0xd1, 0xe3, 0xbd, 0x00, 0x76,
    0x9d, 0xbe, 0xfb, 0xc0, 0x00, 0x3e, 0x02, 0x55, 0xbe, 0x3d,
    0x31, 0xce, 0x85, 0xbd, 0x88, 0x07, 0xbb, 0xbb, 0x6a, 0x60,
    0xe6, 0x3d, 0xcc, 0xe9, 0xaa, 0x3e, 0x08, 0xa4, 0x19, 0x3d,
    0xde, 0xd5, 0x5f, 0xbe, 0xcb, 0x1c, 0x8e, 0x3e, 0x57, 0x04,
    0x73, 0x3e, 0xc7, 0xee, 0xc6, 0x3d, 0xe1, 0xcc, 0x70, 0xbe,
    0x14, 0x30, 0x94, 0x3e, 0x2b, 0x87, 0x92, 0xbe, 0x92, 0xa2,
    0x0b, 0xbe, 0xf5, 0xfc, 0x4b, 0x3e, 0x2f, 0xce, 0x82, 0x3e,
    0x3d, 0x8e, 0x9e, 0xbe, 0x60, 0xbd, 0x97, 0xbe, 0x03, 0x49,
    0x49, 0x3e, 0xc7, 0x53, 0x26, 0x3e, 0xb8, 0x2a, 0xbe, 0x3c,
    0x5f, 0x3b, 0xa4, 0x3e, 0xf7, 0xad, 0x4a, 0xbe, 0xfc, 0xeb,
    0x9a, 0xbe, 0x37, 0xa0, 0x89, 0x3c, 0x8d, 0x5e, 0x9a, 0x3d,
    0x3c, 0x59, 0x87, 0xbe, 0x86, 0xe9, 0xb5, 0x3e, 0x4d, 0xc8,
    0xb2, 0xbe, 0x0e, 0x37, 0xc7, 0xbe, 0x63, 0xb1, 0x89, 0xbd,
    0xd9, 0xb1, 0xa8, 0x3d, 0x8d, 0x6c, 0x75, 0x3d, 0x32, 0xa8,
    0x5b, 0xbb, 0xaa, 0xbb, 0x73, 0xbe, 0xe1, 0x89, 0xaa, 0xbe,
    0xc2, 0xe6, 0x6d, 0x3d, 0xcb, 0x88, 0x0f, 0xbe, 0xe0, 0x5b,
    0x9a, 0xbe, 0x9f, 0x7b, 0xb4, 0x3e, 0x8c, 0xcd, 0xd2, 0xbc,
    0x8e, 0x4b, 0x8e, 0xbe, 0xec, 0xac, 0x69, 0xbe, 0x12, 0xbf,
    0x1c, 0x3e, 0xe1, 0x28, 0x9a, 0xbd, 0x78, 0xf6, 0x3f, 0xbc,
    0x5d, 0xd1, 0x8b, 0xbe, 0xdf, 0x85, 0x6f, 0x3e, 0x2e, 0x99,
    0xe6, 0xbd, 0x19, 0x01, 0x58, 0xbd, 0x26, 0x7b, 0x0c, 0x3e,
    0x29, 0xa7, 0xb4, 0xbe, 0xe6, 0x4d, 0xc5, 0xbe, 0xaf, 0xd1,
    0xbd, 0x3c, 0x0d, 0x54, 0xb6, 0x3e, 0x1a, 0x70, 0x65, 0x3e,
    0xa5, 0x17, 0x7e, 0x3e, 0xae, 0x3d, 0xce, 0x3d, 0x05, 0x5a,
    0xa9, 0xbe, 0xfc, 0x1b, 0x8d, 0xbe, 0xbc, 0x62, 0xc2, 0xbe,
    0x93, 0xfc, 0x60, 0x3e, 0x53, 0xc1, 0x0e, 0xbd, 0x97, 0x9c,
    0xe3, 0x3d, 0x70, 0x1e, 0x6c, 0xbd, 0xdf, 0x14, 0x6c, 0xbe,
    0x6d, 0x0f, 0xa9, 0x3d, 0x58, 0xfd, 0x05, 0x3d, 0x8f, 0x71,
    0x88, 0xbd, 0xfa, 0xbb, 0x20, 0xbe, 0xa6, 0x5d, 0x83, 0xbd,
    0xec, 0xb0, 0xb8, 0x3e, 0x42, 0xfb, 0x86, 0xbe, 0xd8, 0x0e,
    0x00, 0x3f, 0x98, 0x32, 0xb4, 0xbe, 0x9c, 0xf4, 0xc4, 0x3e,
    0x5e, 0x6c, 0x00, 0x3f, 0x1c, 0xd6, 0x05, 0x3f, 0x17, 0x45,
    0x15, 0x3f, 0x85, 0xc8, 0x2c, 0x3c, 0x90, 0x7e, 0x9a, 0x3e,
    0x7d, 0xa1, 0x92, 0x3e, 0xb3, 0xdc, 0xfe, 0x3d, 0x09, 0xce,
    0x91, 0x3e, 0xa9, 0xc6, 0x1f, 0x3f, 0xf6, 0xf0, 0x1d, 0xbe,
    0x69, 0x62, 0xbb, 0x3c, 0xb5, 0x79, 0x9f, 0xbe, 0x82, 0xd1,
    0x8d, 0x3d, 0x87, 0x17, 0x0c, 0x3e, 0xd8, 0x86, 0xed, 0xbb,
    0x4c, 0x4c, 0xd3, 0x3d, 0xc5, 0xfa, 0x75, 0x3c, 0x21, 0x4d,
    0x88, 0x3d, 0xc6, 0x47, 0xa7, 0xbc, 0x9b, 0x5e, 0x2d, 0x3e,
    0xdf, 0x7f, 0x0e, 0xbd, 0x60, 0xf5, 0xa4, 0xbd, 0x9c, 0x41,
    0x9b, 0xbe, 0xf4, 0xbe, 0x7c, 0x3d, 0x34, 0x77, 0x03, 0xbe,
    0x77, 0x92, 0x84, 0xbe, 0x47, 0x8f, 0x47, 0xbe, 0x32, 0xee,
    0x3a, 0x3e, 0xd0, 0x34, 0x58, 0x3c, 0xfe, 0x82, 0x81, 0xbe,
    0x70, 0x3c, 0x7b, 0x3e, 0x05, 0x25, 0x8f, 0x3e, 0x20, 0xfc,
    0x44, 0xbd, 0xc2, 0xb1, 0xcc, 0x3e, 0x77, 0xb9, 0xb5, 0xbe,
    0xf9, 0x44, 0x88, 0xbe, 0x0b, 0xc6, 0x9d, 0xbe, 0x14, 0xf3,
    0x75, 0x3e, 0x09, 0x8a, 0x62, 0xbe, 0x4b, 0xe6, 0xb2, 0xbe,
    0xb5, 0x43, 0xa7, 0xbe, 0xdc, 0x4b, 0xd2, 0x3b, 0xb0, 0xf8,
    0xc0, 0x3e, 0x24, 0x05, 0x7d, 0x3e, 0xe8, 0xe1, 0x8d, 0x3e,
    0x02, 0x99, 0xb2, 0x3e, 0xac, 0x97, 0x72, 0x3e, 0x27, 0xa5,
    0x8f, 0x3e, 0x41, 0xe7, 0xc8, 0xbd, 0xe5, 0x42, 0x7a, 0xbe,
    0x2d, 0x30, 0xa7, 0x3c, 0x98, 0x95, 0x2b, 0x3e, 0xd2, 0x17,
    0xdd, 0xbd, 0x64, 0x2a, 0x06, 0x3e, 0x42, 0x47, 0x14, 0xbe,
    0x52, 0xa7, 0x01, 0xbe, 0x68, 0x46, 0xc4, 0xbe, 0xfa, 0x65,
    0x7d, 0xba, 0x6f, 0x75, 0xfc, 0xbd, 0x8e, 0xbc, 0x3a, 0xbe,
    0xd0, 0x97, 0xd9, 0x3e, 0x6b, 0x37, 0xc8, 0xbd, 0x9b, 0x75,
    0xa0, 0xbe, 0x59, 0xb9, 0xa9, 0x3d, 0x21, 0x7e, 0xc9, 0xbd,
    0xd3, 0x02, 0x3c, 0x3e, 0x3a, 0xe7, 0x84, 0x3c, 0xf9, 0x93,
    0x8f, 0xbe, 0x87, 0x20, 0x25, 0x3e, 0x43, 0xa3, 0xd9, 0xbd,
    0x7a, 0xac, 0x7a, 0xbc, 0x34, 0xbf, 0xce, 0xbe, 0xaa, 0x1d,
    0x0b, 0x3d, 0xa2, 0xc7, 0xb1, 0x3e, 0xd2, 0xd2, 0xaf, 0xbe,
    0xcb, 0xe4, 0x0a, 0x3e, 0x3b, 0x2e, 0xcc, 0x3c, 0x1f, 0xe5,
    0x99, 0x3d, 0x27, 0xd7, 0x59, 0xbe, 0x56, 0x53, 0xcc, 0xbe,
    0x33, 0x73, 0x6f, 0x3e, 0x7a, 0x8b, 0x0f, 0x3c, 0x51, 0xff,
    0x7a, 0x3d, 0x2d, 0x91, 0x8d, 0xbe, 0xab, 0x33, 0x8a, 0xbe,
    0xf7, 0x80, 0xb2, 0xbe, 0xe5, 0x8e, 0x9d, 0x3e, 0x08, 0x62,
    0x12, 0xbe, 0xd5, 0x9f, 0x93, 0xbe, 0x6a, 0x09, 0x3d, 0xbd,
    0x2f, 0x50, 0xdf, 0x3e, 0x78, 0x86, 0xb4, 0xbe, 0x96, 0x50,
    0x20, 0xbd, 0xad, 0xde, 0x44, 0xbd, 0x3f, 0xfb, 0x96, 0xbe,
    0xd5, 0x29, 0xc2, 0xbe, 0x54, 0xb4, 0xde, 0xbe, 0xc1, 0xf8,
    0x28, 0xbd, 0x12, 0xd0, 0xf4, 0xbe, 0xaf, 0xe5, 0x09, 0xbe,
    0xef, 0xd4, 0x66, 0xbe, 0x3c, 0xf2, 0x2f, 0x3e, 0xa8, 0x6d,
    0x75, 0x3e, 0x71, 0xa3, 0xbc, 0xbe, 0x44, 0x42, 0xd0, 0x3d,
    0x8a, 0x1b, 0x75, 0xbe, 0xa8, 0xdd, 0xb9, 0x3e, 0xee, 0x34,
    0xd3, 0xbe, 0x08, 0x1c, 0x24, 0xbe, 0x34, 0xe7, 0xf4, 0xbd,
    0x9c, 0x6b, 0x53, 0xbd, 0x11, 0xd7, 0x72, 0xbc, 0x69, 0xda,
    0xb4, 0xbb, 0xdc, 0xeb, 0x76, 0xbd, 0x89, 0x1d, 0x82, 0xbd,
    0x09, 0x65, 0x8a, 0xbd, 0xef, 0x77, 0x70, 0x3b, 0x99, 0x7c,
    0x42, 0xbd, 0x32, 0xcc, 0xe1, 0x3c, 0xa0, 0xed, 0x83, 0x3c,
    0xa2, 0x24, 0x8f, 0xbd, 0x37, 0x20, 0xfd, 0xbd, 0xf6, 0xbf,
    0x27, 0xbd, 0xfc, 0x43, 0x8d, 0xbd, 0x79, 0xc3, 0xa0, 0x3d,
    0x75, 0x52, 0x09, 0xbc, 0x05, 0x27, 0x77, 0x3d, 0x75, 0x6c,
    0x53, 0x3e, 0x7d, 0x0a, 0x42, 0x3c, 0x9d, 0x85, 0xa7, 0x3d,
    0x5f, 0xc8, 0x0d, 0xbe, 0xf6, 0xb4, 0xf2, 0x3c, 0x7e, 0xe3,
    0x56, 0x3d, 0x87, 0x9f, 0xde, 0x3c, 0x07, 0xa0, 0xe4, 0x3c,
    0x30, 0xf3, 0x59, 0xbd, 0xe4, 0xa5, 0x54, 0xbd, 0xe6, 0x50,
    0x84, 0xbd, 0x3b, 0x12, 0xa1, 0x3d, 0x6e, 0x4f, 0xfd, 0xbd,
    0xd3, 0xd0, 0xc6, 0x3d, 0x68, 0x17, 0x08, 0x3d, 0x50, 0xc1,
    0x0f, 0xbc, 0x83, 0x7e, 0x7e, 0xbc, 0x07, 0xa1, 0x25, 0xbd,
    0xb5, 0x93, 0xda, 0x3c, 0x0f, 0x66, 0xb2, 0xbc, 0x5c, 0x94,
    0x22, 0x3d, 0xc8, 0x0c, 0xb2, 0xbd, 0xba, 0xdc, 0x20, 0xba,
    0xad, 0xdd, 0x5e, 0xbd, 0x60, 0xe3, 0x80, 0xbc, 0xe1, 0x2c,
    0x3e, 0x3d, 0xe9, 0x60, 0x04, 0xbd, 0xc8, 0xb2, 0x61, 0xbc,
    0x35, 0x99, 0x39, 0x3c, 0xdc, 0xd6, 0x38, 0xbc, 0xa4, 0x2a,
    0x38, 0xbd, 0x7b, 0x3d, 0x58, 0x3d, 0x04, 0x9c, 0xe4, 0x3c,
    0x34, 0x82, 0xc6, 0xbc, 0x38, 0xfe, 0x2b, 0x3d, 0xc4, 0x70,
    0xa9, 0x3b, 0xa3, 0xdf, 0xda, 0xbd, 0x4f, 0x37, 0x0d, 0x3c,
    0x56, 0xf1, 0x81, 0x3b, 0x18, 0x54, 0x4d, 0xbd, 0x9c, 0x1d,
    0xd6, 0xbd, 0x44, 0x42, 0xc2, 0xbd, 0xae, 0x4d, 0xe6, 0xbc,
    0xc1, 0xdb, 0xcd, 0x3b, 0xcf, 0x72, 0x02, 0xbd, 0x45, 0xfa,
    0x10, 0xbc, 0x16, 0x47, 0x01, 0xbd, 0xee, 0x35, 0xb1, 0x3c,
    0xc6, 0xa3, 0xc5, 0x3a, 0xf8, 0x15, 0x96, 0xbd, 0x42, 0x12,
    0x19, 0xbd, 0x31, 0x4b, 0x07, 0xbd, 0xf3, 0x90, 0x2d, 0xbd,
    0xac, 0xd4, 0xc7, 0x3c, 0x5e, 0x91, 0x85, 0x3d, 0x66, 0x5b,
    0x90, 0x3d, 0xc1, 0x82, 0x09, 0xbd, 0xa7, 0x58, 0xb7, 0x3c,
    0x9d, 0x35, 0xc7, 0xbd, 0xf1, 0xf0, 0xc3, 0xbd, 0x8d, 0x44,
    0xe8, 0xbc, 0xf7, 0x06, 0x47, 0x3d, 0x53, 0xeb, 0x1d, 0x3c,
    0xd6, 0xdd, 0xc0, 0xbd, 0xc7, 0x0f, 0x9c, 0xbd, 0x6c, 0x42,
    0xaf, 0xbd, 0x95, 0x45, 0xa6, 0x3d, 0xc9, 0x67, 0xd2, 0x3b,
    0x6d, 0xc3, 0xd7, 0x3c, 0x5f, 0x6e, 0x25, 0x3d, 0xd5, 0xc0,
    0xa8, 0xbd, 0x66, 0xe9, 0x01, 0x3e, 0xdb, 0xbf, 0x37, 0xbd,
    0xef, 0xe4, 0x26, 0x3c, 0xb2, 0xea, 0x8f, 0xbb, 0xad, 0xa9,
    0xac, 0x3d, 0x25, 0x2b, 0x4f, 0x3d, 0x80, 0x38, 0x16, 0xbd,
    0x28, 0x92, 0xa2, 0x38, 0xfe, 0xa0, 0x83, 0xbb, 0x3c, 0xd2,
    0xe3, 0x3c, 0xd7, 0x78, 0xad, 0xbd, 0x49, 0x22, 0x60, 0xbd,
    0xb9, 0xc5, 0x48, 0xbd, 0x66, 0xc9, 0x04, 0xbd, 0xac, 0xf1,
    0xfc, 0xbb, 0xb6, 0x0a, 0x2a, 0x3d, 0x9a, 0x47, 0xba, 0xbc,
    0xa2, 0xd2, 0xd0, 0x3c, 0xc3, 0x90, 0xb9, 0xb8, 0x0f, 0xa7,
    0x5e, 0xbd, 0xe2, 0xb5, 0x20, 0xbd, 0x08, 0x42, 0xfa, 0xbc,
    0x26, 0x63, 0x2a, 0x3d, 0x89, 0x9b, 0x3d, 0x3d, 0xfe, 0x99,
    0x3c, 0xbc, 0x58, 0xf8, 0xef, 0x3c, 0x25, 0x49, 0xc3, 0xbd,
    0xec, 0x6b, 0xc3, 0xbb, 0xda, 0x71, 0x88, 0x3d, 0x84, 0x42,
    0x14, 0x3c, 0x50, 0xa1, 0x1d, 0x3c, 0x9d, 0xe9, 0x88, 0xbb,
    0xe9, 0x3d, 0x77, 0xbd, 0xd5, 0x02, 0x4a, 0x3c, 0x59, 0x22,
    0x5c, 0x3c, 0x84, 0xe1, 0xa7, 0xbd, 0x0a, 0x8c, 0xf2, 0xbc,
    0x1b, 0x7d, 0xef, 0x3c, 0x78, 0x20, 0x4b, 0xbd, 0xc3, 0x01,
    0x18, 0x3d, 0xe1, 0x98, 0x3d, 0xbc, 0xc4, 0x81, 0xc8, 0xbd,
    0x07, 0x9a, 0x13, 0x3c, 0x54, 0x2b, 0x84, 0xbd, 0x54, 0xc2,
    0x86, 0x3d, 0xc7, 0xa9, 0xa4, 0x3a, 0x54, 0x70, 0x26, 0xbd,
    0xf4, 0xa0, 0xea, 0x3d, 0x95, 0x59, 0x84, 0x3d, 0x72, 0x76,
    0x1a, 0xbc, 0xf6, 0x5f, 0x4f, 0xbc, 0x15, 0x1c, 0x24, 0xbd,
    0xd4, 0x6c, 0x29, 0x3d, 0x28, 0x7d, 0x57, 0x3d, 0x9c, 0xc2,
    0x71, 0x3a, 0xe7, 0x89, 0x3b, 0xbc, 0x27, 0xe5, 0xd7, 0x3d,
    0xa5, 0x4e, 0x56, 0x3d, 0xbf, 0x7f, 0xdd, 0x3b, 0x12, 0x91,
    0x97, 0x3c, 0x3d, 0x9f, 0x31, 0xbd, 0x57, 0x24, 0x06, 0xbe,
    0x80, 0xb2, 0x58, 0x3d, 0xf9, 0x76, 0x8e, 0xbd, 0x20, 0x70,
    0xb2, 0xbc, 0xb9, 0x7b, 0x95, 0x3d, 0xb6, 0x95, 0x3c, 0xbd,
    0x27, 0xff, 0xfc, 0x3b, 0x10, 0xf5, 0x49, 0x3c, 0x2e, 0x38,
    0xa8, 0xbd, 0x0f, 0x2f, 0x22, 0xbd, 0xcf, 0x0b, 0x7c, 0x3c,
    0x86, 0xc0, 0xf7, 0xbc, 0xe2, 0x2d, 0x0a, 0x3c, 0xdb, 0x05,
    0xbf, 0x3d, 0xa6, 0xf7, 0x46, 0x3d, 0x60, 0xee, 0x82, 0x3d,
    0x57, 0x2b, 0xc4, 0x3d, 0x4d, 0x4c, 0x65, 0x3d, 0x0d, 0xcd,
    0x71, 0x3d, 0xd1, 0xf4, 0x09, 0xbd, 0x04, 0x27, 0x48, 0x3c,
    0x03, 0xc5, 0xa0, 0x3d, 0x0d, 0x21, 0xb9, 0x3d, 0x47, 0x5c,
    0xd9, 0x3a, 0x14, 0xdf, 0x16, 0xbb, 0xaa, 0x23, 0xad, 0x3c,
    0x18, 0xa0, 0xb4, 0x3d, 0xf0, 0x9e, 0x1a, 0x3c, 0x4d, 0x5f,
    0x56, 0xbd, 0x77, 0xb8, 0x0b, 0xbb, 0xb4, 0xa6, 0xe0, 0xbc,
    0x54, 0xc9, 0x4c, 0x3d, 0xd7, 0x8a, 0x87, 0xbb, 0x4b, 0x6c,
    0x63, 0x3c, 0xea, 0xc8, 0xbc, 0x3c, 0xe7, 0x89, 0x0f, 0x3d,
    0xea, 0xd5, 0x85, 0xbc, 0xd3, 0x4e, 0x41, 0x3d, 0x24, 0xe8,
    0xa2, 0x3c, 0xe4, 0xf6, 0xfa, 0x3d, 0x5e, 0xde, 0x87, 0x3c,
    0x86, 0x28, 0x94, 0xbc, 0x02, 0x0f, 0x81, 0x3d, 0x93, 0xfc,
    0x0a, 0x3d, 0x30, 0x34, 0x7d, 0x3b, 0x8d, 0x57, 0x99, 0xbc,
    0xad, 0xf6, 0x7e, 0xbd, 0x82, 0x5a, 0xaf, 0xbd, 0x11, 0xba,
    0x08, 0xbe, 0x1a, 0x8e, 0x00, 0xbd, 0x91, 0x12, 0xc6, 0xbc,
    0xef, 0x72, 0x1c, 0x3d, 0x60, 0xa3, 0xc2, 0x3b, 0x05, 0x20,
    0x94, 0x3d, 0x50, 0xef, 0x45, 0xbd, 0xf5, 0x80, 0x38, 0x3d,
    0xda, 0xda, 0xd5, 0x3c, 0x73, 0xe7, 0xb6, 0xbd, 0x03, 0x60,
    0x11, 0xbd, 0x45, 0x50, 0x1c, 0x3c, 0x17, 0x96, 0x81, 0xbd,
    0x3c, 0x77, 0xe4, 0xbc, 0x7e, 0x62, 0x5c, 0xbd, 0xba, 0x86,
    0x8c, 0xbb, 0xb8, 0x4b, 0xae, 0x3c, 0x29, 0x52, 0x0b, 0x3d,
    0xa3, 0x8d, 0xec, 0x3c, 0xb6, 0x6e, 0xa5, 0xbd, 0xd5, 0x38,
    0xd0, 0xbc, 0xdf, 0xb9, 0xc1, 0xbd, 0x31, 0x90, 0xa4, 0xbd,
    0x76, 0xd7, 0x3c, 0x3a, 0x4c, 0x73, 0x76, 0x3d, 0xb4, 0x81,
    0x8e, 0xba, 0x4a, 0x01, 0x28, 0x3d, 0xd0, 0x12, 0x9d, 0xbd,
    0xe3, 0xd0, 0x32, 0x3d, 0x5b, 0xe0, 0x6c, 0x3d, 0xa1, 0x56,
    0xfd, 0x3c, 0xec, 0xf0, 0x7a, 0x3c, 0xdd, 0xc9, 0x0a, 0x3b,
    0xff, 0xf6, 0x10, 0xbd, 0xb9, 0x7a, 0xbc, 0xbd, 0x52, 0x0f,
    0x30, 0xbd, 0x51, 0x1b, 0xa3, 0xbd, 0xd8, 0x26, 0xbb, 0x3c,
    0xfc, 0x32, 0x63, 0xbd, 0x73, 0xc4, 0x1b, 0x3d, 0x8d, 0x76,
    0xb9, 0xba, 0x01, 0x85, 0xfd, 0xba, 0x1f, 0x7a, 0x3b, 0xbb,
    0x7a, 0x7c, 0xd8, 0xbc, 0xd3, 0x7d, 0x98, 0xbd, 0x87, 0xaf,
    0x3b, 0xbd, 0xaa, 0x73, 0x96, 0xbc, 0x7f, 0x5b, 0x1e, 0x3d,
    0x85, 0x90, 0xb0, 0x3d, 0x23, 0xc0, 0x4f, 0x3d, 0xa3, 0xfa,
    0xd1, 0x3c, 0xbf, 0xac, 0x51, 0xbc, 0x4f, 0xaa, 0x1b, 0x3d,
    0x28, 0xfc, 0x76, 0xbd, 0x02, 0x69, 0x77, 0xbd, 0xe3, 0x45,
    0x2c, 0x3d, 0x88, 0xc1, 0xea, 0x3c, 0xa9, 0x64, 0x7a, 0xbd,
    0xe8, 0xd1, 0x39, 0xbd, 0xb1, 0x09, 0x13, 0x3d, 0xe7, 0x05,
    0x1e, 0xbd, 0x85, 0xaf, 0xc0, 0xbc, 0xa2, 0xf6, 0x5a, 0xbd,
    0xe9, 0x44, 0x2f, 0xbd, 0xea, 0xb7, 0x85, 0xbd, 0x2a, 0x1a,
    0x15, 0x3d, 0xf0, 0xe4, 0x24, 0x3d, 0x9a, 0xdb, 0xe5, 0x3c,
    0xcb, 0xf0, 0x01, 0x3b, 0x90, 0x67, 0x8f, 0xbc, 0xf3, 0xaa,
    0x26, 0xbd, 0x8f, 0x3c, 0x02, 0xbb, 0x9b, 0x58, 0xf5, 0xbd,
    0x21, 0x44, 0x9b, 0xbd, 0xde, 0x12, 0x30, 0x3d, 0x68, 0x5b,
    0x2f, 0xbd, 0xe3, 0x2f, 0x0b, 0xbd, 0x7e, 0xcd, 0x08, 0x3d,
    0x8f, 0xfb, 0x92, 0xbd, 0x6b, 0x37, 0x97, 0xbd, 0x6a, 0x88,
    0xa3, 0x3c, 0x9c, 0x9c, 0xad, 0xbd, 0x96, 0x87, 0xa0, 0x3a,
    0xa4, 0x1e, 0x5e, 0xbd, 0x1e, 0xb3, 0x24, 0xbc, 0xed, 0x93,
    0x83, 0x3d, 0xca, 0x6e, 0xa0, 0x3d, 0xd1, 0xd5, 0xc6, 0xba,
    0x2a, 0x4e, 0x8f, 0x3b, 0x07, 0xd0, 0xf8, 0xbc, 0xec, 0x13,
    0xf2, 0xbc, 0x75, 0x70, 0x57, 0x3d, 0x33, 0xdf, 0x28, 0x3d,
    0xf7, 0xde, 0x2d, 0x3d, 0x0d, 0xd6, 0xbe, 0x3d, 0x0c, 0x40,
    0xa4, 0x3c, 0xac, 0x0a, 0xd0, 0xbc, 0xdf, 0x91, 0x65, 0xbd,
    0x03, 0x28, 0x69, 0x3d, 0xc7, 0x02, 0x79, 0xbd, 0x56, 0x34,
    0xe6, 0xbc, 0x6c, 0xdf, 0x50, 0xbd, 0x98, 0x86, 0x41, 0xbd,
    0x56, 0xf0, 0x0c, 0xbe, 0x0a, 0x31, 0x30, 0x3d, 0x62, 0x2c,
    0x41, 0xbd, 0x5c, 0xc6, 0x42, 0xbd, 0xc1, 0x66, 0x37, 0xbd,
    0xfc, 0xf3, 0x14, 0x3d, 0xb1, 0x95, 0x1b, 0x3b, 0x0c, 0x9c,
    0x07, 0xbe, 0xc4, 0x59, 0x5f, 0x3d, 0x71, 0xd6, 0x3a, 0x3b,
    0x61, 0x69, 0xa7, 0xbc, 0x4c, 0xeb, 0xfa, 0xbc, 0xc2, 0xe8,
    0x87, 0xbc, 0xa3, 0x52, 0x75, 0xbd, 0x39, 0x71, 0xba, 0x3d,
    0xb7, 0xe7, 0x88, 0x3d, 0x0a, 0x5c, 0xc9, 0x3c, 0x36, 0x48,
    0x2b, 0xbc, 0x5a, 0xe3, 0x55, 0x3d, 0x1b, 0x3c, 0x88, 0xbc,
    0xfc, 0x04, 0x03, 0x3d, 0x68, 0x83, 0x87, 0x3d, 0x94, 0x17,
    0x8b, 0xbc, 0x47, 0x84, 0x76, 0xbd, 0xc1, 0xd0, 0x45, 0xbd,
    0x7f, 0x0b, 0x6b, 0x3d, 0x34, 0xd4, 0xbd, 0x3d, 0x41, 0xe3,
    0xe2, 0xbc, 0x13, 0x94, 0x30, 0x3d, 0xa6, 0x28, 0x9b, 0x3d,
    0xc0, 0x0f, 0xb1, 0x3b, 0x94, 0x0c, 0x9a, 0xbb, 0x1d, 0x0b,
    0x42, 0x3d, 0x43, 0x45, 0xfa, 0xbb, 0xae, 0x38, 0xca, 0x3c,
    0x26, 0xb8, 0x58, 0xbb, 0x4d, 0x7e, 0x3a, 0x3d, 0x8b, 0x31,
    0x1b, 0x3d, 0xa0, 0x3f, 0x44, 0x3d, 0x8e, 0x88, 0xf5, 0x3d,
    0x97, 0x1c, 0x59, 0xbc, 0x58, 0xac, 0xb1, 0x3d, 0x67, 0x0a,
    0xc9, 0xbd, 0x67, 0x51, 0xb9, 0xbd, 0xd3, 0x90, 0x68, 0xbb,
    0x48, 0xc9, 0x0d, 0xbb, 0xee, 0x8d, 0x06, 0x3d, 0xd6, 0xeb,
    0xea, 0xbd, 0xcb, 0xe5, 0x65, 0xbd, 0x94, 0xa0, 0x43, 0xbc,
    0x08, 0xed, 0x51, 0xbd, 0xa2, 0x10, 0xbc, 0xbd, 0xfc, 0x3f,
    0xbb, 0xbc, 0xcd, 0x00, 0xab, 0xbd, 0x46, 0x4d, 0xb6, 0x3d,
    0xf3, 0xab, 0x9d, 0xbc, 0x07, 0x61, 0x12, 0x3e, 0xb9, 0xaf,
    0x92, 0x3d, 0x05, 0xee, 0x89, 0x3d, 0x54, 0xca, 0x19, 0x3e,
    0xf4, 0x28, 0xff, 0x3b, 0x1f, 0xd3, 0xac, 0x3d, 0xc0, 0xaa,
    0x65, 0xbd, 0x91, 0xa6, 0x77, 0xbd, 0xfd, 0x6d, 0xa1, 0xbd,
    0x5c, 0x18, 0xba, 0xbd, 0x74, 0x10, 0x54, 0x3d, 0x89, 0xc9,
    0x21, 0xbd, 0xbb, 0xdb, 0x3d, 0xbe, 0x05, 0x08, 0x50, 0xbd,
    0x5e, 0x11, 0x17, 0xbe, 0x5b, 0x6b, 0x94, 0xbd, 0x92, 0xb7,
    0x02, 0xbe, 0x7a, 0xc7, 0x50, 0x3d, 0xc8, 0x58, 0x14, 0x3d,
    0xc1, 0xf6, 0x6a, 0xbd, 0xb9, 0x80, 0x3e, 0x3e, 0xe6, 0x60,
    0xb2, 0x3d, 0xde, 0x09, 0x2e, 0x3e, 0xe9, 0xee, 0xce, 0x3d,
    0x4d, 0xe9, 0xae, 0xbd, 0x4b, 0x1c, 0x8c, 0x3c, 0x53, 0x80,
    0x97, 0xbc, 0x73, 0x5c, 0xab, 0xbd, 0xe9, 0xd5, 0xa3, 0x3c,
    0x44, 0xc2, 0xe7, 0xbd, 0x8c, 0x34, 0x2f, 0x3d, 0x31, 0xc0,
    0xa4, 0xbc, 0x36, 0xa3, 0x47, 0xbd, 0x43, 0xc9, 0xda, 0x3c,
    0xda, 0x9a, 0x02, 0xbe, 0xb2, 0xe8, 0xa9, 0xbc, 0x25, 0x0c,
    0x10, 0x3c, 0x90, 0x24, 0x44, 0xbd, 0x02, 0x4d, 0x3c, 0x3d,
    0xd0, 0x99, 0x81, 0xbc, 0x65, 0x16, 0xef, 0x3d, 0x40, 0x21,
    0x69, 0x3d, 0xb0, 0x00, 0xab, 0x3b, 0x8a, 0x33, 0x1f, 0x3d,
    0x43, 0x0c, 0x9c, 0x3c, 0x17, 0x88, 0x1c, 0x3d, 0x33, 0xe7,
    0x4d, 0x3d, 0xd5, 0x31, 0x9f, 0xbd, 0xe4, 0x9c, 0x6e, 0xbd,
    0xfd, 0x16, 0x46, 0xbd, 0xd9, 0x83, 0xde, 0x3c, 0x2b, 0x8f,
    0x14, 0x3d, 0x54, 0x5e, 0x4f, 0xbd, 0xf0, 0xf1, 0xf7, 0x3b,
    0x29, 0xe5, 0x00, 0xbd, 0xeb, 0xf9, 0x4b, 0x3c, 0x81, 0x07,
    0xb6, 0xbb, 0x2c, 0xce, 0x9f, 0xbc, 0x5e, 0xbf, 0x20, 0x3e,
    0x20, 0xd1, 0x7b, 0xbd, 0x79, 0xe8, 0x37, 0x3e, 0x05, 0x66,
    0x0e, 0x3e, 0xb1, 0x71, 0xab, 0x3d, 0xa3, 0x1e, 0xe6, 0x3d,
    0x62, 0x32, 0x18, 0xbe, 0x1b, 0xc7, 0x78, 0xbd, 0xd0, 0xfd,
    0xc9, 0x3c, 0x6a, 0xd5, 0x3a, 0x3d, 0xa0, 0x58, 0xa3, 0x3c,
    0x8c, 0x7b, 0x53, 0x3d, 0x81, 0xf1, 0x1f, 0xbd, 0xe1, 0x71,
    0x5b, 0xbd, 0xdd, 0x3d, 0x87, 0x3d, 0xe1, 0x36, 0x15, 0xbd,
    0xf4, 0x79, 0x14, 0xbc, 0x6d, 0x55, 0x77, 0x3d, 0x6c, 0xd5,
    0xf6, 0x3c, 0xcb, 0x0f, 0xff, 0x3c, 0xbe, 0x76, 0x06, 0x3b,
    0x3d, 0xd7, 0x14, 0xbd, 0xb9, 0x6f, 0x26, 0x3d, 0xb8, 0x8c,
    0x0b, 0x3c, 0xdd, 0x96, 0x3c, 0xbd, 0xd5, 0x72, 0x2e, 0xbd,
    0x91, 0x6e, 0xa4, 0x3d, 0xb2, 0xb3, 0x56, 0xbe, 0x1f, 0x89,
    0x24, 0x3c, 0x7a, 0x8f, 0x66, 0x3d, 0x31, 0xaa, 0xb3, 0x3c,
    0x15, 0xdc, 0xc8, 0x3d, 0x91, 0xfc, 0xa4, 0xbe, 0x5f, 0x41,
    0x05, 0x3e, 0x51, 0x28, 0xfd, 0x3b, 0x17, 0xf6, 0x06, 0x3e,
    0xc5, 0x87, 0x12, 0x3e, 0x0c, 0x13, 0xb0, 0x3d, 0xf4, 0x77,
    0x12, 0xbd, 0x22, 0x31, 0x55, 0x3d, 0x74, 0x79, 0x5e, 0xbe,
    0x2e, 0x35, 0x90, 0x3d, 0xf4, 0xe1, 0x51, 0xbe, 0x61, 0x23,
    0xe7, 0xbd, 0x3c, 0xf2, 0x54, 0xbe, 0x9e, 0xdf, 0x34, 0xbe,
    0xda, 0x8e, 0x8c, 0x3e, 0x10, 0xe6, 0x2f, 0xbe, 0x8b, 0xd7,
    0x43, 0x3d, 0x9c, 0xa3, 0x94, 0x3d, 0xb4, 0x35, 0x7a, 0x3d,
    0x90, 0xde, 0xd5, 0x3d, 0x18, 0x84, 0x86, 0xbe, 0xe5, 0x3b,
    0xdc, 0x3d, 0x24, 0x96, 0x1a, 0xbd, 0x2d, 0x98, 0x1d, 0x3e,
    0xea, 0x60, 0x93, 0x3c, 0xfb, 0x92, 0x91, 0x3d, 0xdb, 0x72,
    0xd3, 0xbb, 0x94, 0x3a, 0x99, 0x3d, 0x9a, 0x78, 0x66, 0xbe,
    0x98, 0xb3, 0x63, 0xbd, 0x97, 0xd6, 0x16, 0xbe, 0x31, 0x9b,
    0x19, 0xbe, 0xf1, 0x66, 0x29, 0xbe, 0x68, 0x99, 0x64, 0xbe,
    0x62, 0xc5, 0x80, 0x3d, 0x1d, 0x37, 0x2c, 0xbe, 0x1a, 0x93,
    0x9f, 0xbd, 0x31, 0x8a, 0x28, 0x3d, 0xec, 0x01, 0xf1, 0x3c,
    0x6d, 0x97, 0xcb, 0x3d, 0x1e, 0x27, 0x52, 0xbe, 0xc7, 0x40,
    0xd0, 0x3d, 0xb3, 0x19, 0x09, 0xbe, 0x1c, 0x10, 0xe7, 0x3c,
    0x5a, 0xd5, 0xbd, 0xbc, 0x28, 0x19, 0xde, 0xbd, 0x89, 0x78,
    0x0c, 0x3d, 0xde, 0xe9, 0x27, 0x3d, 0xa1, 0x58, 0x02, 0xbe,
    0x6e, 0x57, 0x84, 0x3c, 0x75, 0xf4, 0x84, 0xbd, 0x5c, 0x8d,
    0x00, 0xbe, 0xb0, 0x17, 0x83, 0xbd, 0x2d, 0x64, 0xa4, 0xbd,
    0x47, 0xe6, 0x8c, 0x3c, 0xaf, 0x5a, 0x31, 0xbd, 0xe3, 0x7e,
    0x3e, 0xbc, 0x13, 0x13, 0xdf, 0x3d, 0xbc, 0x25, 0xaf, 0x3b,
    0x95, 0x8e, 0x2d, 0x3d, 0xac, 0x58, 0xbe, 0x3d, 0x97, 0xab,
    0x8c, 0x3d, 0x52, 0xdf, 0xef, 0xbd, 0x49, 0x27, 0x96, 0x3d,
    0x25, 0x11, 0xed, 0xbc, 0xe5, 0xde, 0x86, 0xbd, 0xbe, 0x51,
    0x78, 0xbd, 0x40, 0xdb, 0xa3, 0x3d, 0xbd, 0x7f, 0x80, 0x3d,
    0xaa, 0x43, 0x8e, 0xbd, 0x24, 0x4a, 0x1c, 0x3e, 0xae, 0xd6,
    0xe0, 0x3d, 0x76, 0xfe, 0x63, 0x3c, 0x6d, 0x3a, 0xcd, 0x3d,
    0x14, 0x51, 0xc2, 0x3d, 0x48, 0x28, 0x39, 0xbe, 0x32, 0x45,
    0x5f, 0x3d, 0xf8, 0x1a, 0x90, 0xbc, 0x9a, 0x50, 0xdc, 0xbc,
    0x56, 0xfe, 0x7f, 0xbd, 0xf5, 0x0c, 0x2b, 0xbe, 0xe5, 0xcf,
    0x1c, 0x3c, 0x07, 0xb4, 0xa9, 0xbc, 0x69, 0xd6, 0x7b, 0x3d,
    0x6a, 0x73, 0xd2, 0xbd, 0xcd, 0x67, 0x11, 0xbe, 0x23, 0xec,
    0xc3, 0xbd, 0xcc, 0xf3, 0x4d, 0xbc, 0xa1, 0x38, 0x11, 0xbe,
    0x3c, 0x6c, 0x7c, 0xbd, 0x3b, 0x63, 0x37, 0xbe, 0xce, 0x19,
    0x14, 0xbe, 0xe9, 0xa7, 0x52, 0xbe, 0x75, 0x33, 0x37, 0xbe,
    0xe8, 0xa8, 0x86, 0x3d, 0x41, 0xb7, 0xf7, 0xbd, 0x30, 0xaf,
    0xaf, 0x3d, 0xca, 0x0f, 0xe2, 0x3d, 0x7b, 0xd9, 0x08, 0x3e,
    0x2f, 0xf7, 0xa3, 0xbc, 0xab, 0x28, 0x16, 0xbe, 0x0d, 0x16,
    0xcf, 0x3d, 0xe2, 0xbd, 0xd2, 0xbc, 0x08, 0x15, 0xcb, 0x3d,
    0x6a, 0xc9, 0x2c, 0x3c, 0x63, 0x58, 0xec, 0x3d, 0x19, 0x55,
    0x74, 0x3d, 0x5a, 0x42, 0x90, 0x3b, 0xc4, 0x7c, 0x01, 0xbe,
    0x5f, 0x8d, 0x14, 0xbd, 0x51, 0xff, 0xa0, 0xbc, 0xbc, 0x09,
    0x4f, 0xbc, 0x14, 0xbb, 0xa4, 0xbd, 0x9b, 0x73, 0x76, 0xbd,
    0x7c, 0xc1, 0x71, 0xbd, 0x32, 0x7a, 0xab, 0xbe, 0xcb, 0xf0,
    0x95, 0xbc, 0x22, 0xef, 0xc2, 0x3d, 0xe1, 0xe0, 0x60, 0x3e,
    0x78, 0x5c, 0x51, 0xbd, 0x5f, 0x90, 0xbd, 0xbe, 0xac, 0x2d,
    0xf1, 0xbd, 0x32, 0x05, 0x9d, 0x3d, 0x40, 0x0b, 0xdc, 0x39,
    0x3a, 0x4a, 0xb9, 0x3d, 0xa9, 0x42, 0x22, 0x3e, 0x46, 0xd9,
    0x5a, 0x3e, 0xf3, 0xf1, 0xde, 0x3d, 0x15, 0xd5, 0xf3, 0xbe,
    0xde, 0xc6, 0xcf, 0x3d, 0x0f, 0x84, 0x6f, 0xbe, 0x26, 0xa4,
    0x85, 0xbe, 0x79, 0xf3, 0x2b, 0xbe, 0x59, 0x28, 0x5a, 0xbe,
    0xa8, 0x32, 0xb9, 0xbd, 0xe0, 0x40, 0xc9, 0x3c, 0x4d, 0x88,
    0x69, 0xbd, 0x86, 0x90, 0x9b, 0xbd, 0x85, 0x61, 0xcd, 0xbd,
    0xdc, 0x98, 0x98, 0xbd, 0x3c, 0x9e, 0x1e, 0x3d, 0x5f, 0xd9,
    0x5e, 0x3d, 0x4b, 0xa3, 0x9e, 0xbd, 0xb9, 0x3c, 0x59, 0xbb,
    0x0a, 0x09, 0xe0, 0xbd, 0x1a, 0x22, 0x7b, 0xbc, 0xdd, 0x18,
    0x9b, 0xbd, 0x61, 0x1c, 0xcc, 0xbd, 0x72, 0xdd, 0x3d, 0x3d,
    0x05, 0x74, 0x8c, 0xbc, 0x9b, 0x30, 0x89, 0x3d, 0xc4, 0x03,
    0x44, 0x3d, 0x47, 0x94, 0xed, 0xbb, 0x29, 0x3a, 0x2e, 0xbb,
    0x00, 0x4b, 0xbe, 0xbc, 0x25, 0x2f, 0x82, 0xbc, 0x23, 0x43,
    0xa6, 0xbd, 0xcf, 0x4a, 0x23, 0xbc, 0x36, 0x13, 0xd5, 0xbc,
    0x46, 0xab, 0x20, 0x3b, 0x98, 0xc7, 0x92, 0x3d, 0x5a, 0xf5,
    0xb6, 0x3c, 0xee, 0xc1, 0x8b, 0x3d, 0x8a, 0xc2, 0x53, 0xbd,
    0x0a, 0x21, 0xd1, 0xbd, 0x4a, 0x14, 0xac, 0xbc, 0xfb, 0xcc,
    0xae, 0xbd, 0xf2, 0x72, 0x89, 0xbc, 0x48, 0x69, 0x2c, 0x3d,
    0x01, 0x8e, 0xa6, 0xbd, 0x99, 0xb6, 0x55, 0x3d, 0x5e, 0xb5,
    0x8c, 0x3d, 0x16, 0xf2, 0xbb, 0xbc, 0xd6, 0x2f, 0x39, 0x3d,
    0x06, 0xe6, 0x8a, 0x3d, 0xab, 0x6b, 0x84, 0x3b, 0xe3, 0x89,
    0xc3, 0xbc, 0xbb, 0xb8, 0x8b, 0xbd, 0xf1, 0x67, 0x03, 0xbe,
    0x4b, 0xe3, 0x95, 0xbd, 0xce, 0x8e, 0x44, 0xbd, 0xf6, 0xf6,
    0x5a, 0x3d, 0x2d, 0x79, 0x39, 0x3d, 0x05, 0xe4, 0xb8, 0xbd,
    0xd8, 0x97, 0x1b, 0xbd, 0xd6, 0xec, 0x16, 0xbe, 0xe5, 0xbc,
    0x75, 0xbd, 0xb7, 0xe8, 0x8f, 0xbd, 0xbf, 0x33, 0x02, 0x3e,
    0x61, 0xd8, 0x35, 0xbd, 0x15, 0xf3, 0x98, 0x3d, 0xa0, 0x34,
    0x66, 0x3d, 0x59, 0x17, 0x9a, 0xbc, 0xce, 0xb3, 0xbc, 0x3d,
    0xfd, 0x1c, 0x5e, 0xbd, 0xa9, 0xcc, 0x26, 0x3e, 0x1c, 0x33,
    0xfc, 0xbd, 0x83, 0x97, 0x3f, 0xbd, 0x98, 0xb2, 0xac, 0xbc,
    0x81, 0xe6, 0x87, 0xbd, 0x59, 0x1c, 0xdf, 0x3d, 0xb3, 0x42,
    0x15, 0xbd, 0x7e, 0xff, 0xd7, 0x39, 0xf4, 0xa5, 0x79, 0x3c,
    0x31, 0xd1, 0xa8, 0xbd, 0xac, 0xb6, 0x9d, 0xbd, 0x0a, 0x29,
    0xe7, 0xbd, 0xbf, 0x9f, 0x4b, 0xbd, 0xf1, 0xe3, 0x05, 0x3e,
    0x6e, 0x16, 0x31, 0x3d, 0x4a, 0x50, 0x0b, 0x3e, 0xf6, 0x69,
    0x9f, 0x3d, 0x7c, 0xe3, 0x3f, 0x3d, 0x40, 0x3e, 0xc9, 0x3c,
    0xb7, 0xb9, 0xae, 0x3c, 0x9d, 0x6f, 0xaa, 0x3d, 0x26, 0xf9,
    0xf0, 0xbc, 0xe0, 0x7b, 0x78, 0x3c, 0x63, 0x46, 0x09, 0xbe,
    0xcc, 0xb2, 0x23, 0xbe, 0x4c, 0x85, 0x2e, 0x3e, 0x6a, 0x04,
    0x34, 0x3c, 0x71, 0xd4, 0xaa, 0x3d, 0x64, 0x9e, 0x63, 0x3c,
    0x47, 0x57, 0x2e, 0xbe, 0x66, 0x86, 0x3c, 0xbe, 0x9e, 0x02,
    0xb5, 0xbd, 0x2a, 0x44, 0x57, 0xbd, 0x82, 0x6c, 0xc9, 0x3d,
    0x2c, 0x14, 0xa0, 0xbd, 0xa9, 0x30, 0x09, 0x3e, 0x01, 0x27,
    0xa2, 0x3d, 0xc6, 0xf4, 0x68, 0x3c, 0x64, 0xd8, 0xa7, 0xbb,
    0xce, 0x93, 0xe8, 0x3b, 0xf1, 0x72, 0x1b, 0x3e, 0x81, 0x91,
    0xad, 0xbc, 0xeb, 0xc1, 0xe5, 0xbc, 0x6f, 0x5d, 0x3b, 0xbe,
    0x12, 0x82, 0x87, 0xbd, 0x94, 0x62, 0xb0, 0x3d, 0x1f, 0xf5,
    0xe1, 0x3c, 0xeb, 0xe6, 0x5c, 0xbb, 0xc9, 0x3d, 0x71, 0xbd,
    0x64, 0xbe, 0xaa, 0xbd, 0xc0, 0x49, 0xa0, 0xbd, 0xaa, 0x77,
    0xfe, 0xbd, 0x6c, 0xa3, 0x04, 0xbe, 0x7b, 0xe8, 0x4a, 0x3d,
    0xed, 0x30, 0x21, 0xbd, 0x05, 0xab, 0xab, 0x3d, 0x29, 0x57,
    0xb4, 0x3d, 0x42, 0xaa, 0xf6, 0x3d, 0x9e, 0x8b, 0xc5, 0x3d,
    0x88, 0xf4, 0x8f, 0x3d, 0x50, 0xec, 0xf9, 0x3d, 0x50, 0xfe,
    0xb2, 0x3d, 0x19, 0xc1, 0x06, 0xbd, 0xde, 0x02, 0x76, 0xbd,
    0x35, 0x5d, 0x96, 0xbd, 0xbe, 0xfe, 0x2f, 0x3e, 0xac, 0x81,
    0x83, 0xbd, 0xb1, 0x1f, 0xb3, 0xbd, 0xe7, 0x71, 0x58, 0x3d,
    0x51, 0xe8, 0x12, 0xbe, 0x11, 0x9e, 0xee, 0xbd, 0xca, 0x2f,
    0x90, 0x3b, 0xc8, 0x09, 0xf0, 0xbd, 0x29, 0xfd, 0x21, 0x3e,
    0xd1, 0x4e, 0x65, 0xbb, 0x4b, 0x2f, 0x2d, 0x3e, 0xf8, 0x0b,
    0xab, 0x3d, 0x5f, 0x28, 0xe5, 0x3d, 0xbe, 0x97, 0x8e, 0x3d,
    0x50, 0x30, 0x73, 0xbc, 0x73, 0xfa, 0x01, 0x3d, 0xd7, 0x94,
    0xd3, 0x3d, 0x5f, 0x53, 0x12, 0x3d, 0xff, 0x69, 0x9b, 0xbd,
    0x4d, 0x61, 0x73, 0x3c, 0xa2, 0x46, 0xbf, 0xbc, 0x2c, 0x1d,
    0x79, 0xbc, 0x58, 0x9d, 0xa2, 0x3d, 0x44, 0x78, 0x40, 0x3d,
    0xb7, 0x04, 0xb4, 0xbd, 0x2f, 0xec, 0x58, 0xbd, 0xfc, 0x2a,
    0xef, 0x3b, 0xd8, 0x98, 0x31, 0x3d, 0xfb, 0xea, 0xa2, 0x3d,
    0x97, 0xd6, 0x44, 0x3d, 0xf9, 0x75, 0xf8, 0xbb, 0x4c, 0xce,
    0x1e, 0xbc, 0xb1, 0x98, 0x87, 0xbc, 0x88, 0x43, 0xf2, 0x3b,
    0xe0, 0xde, 0x7d, 0x3d, 0x4d, 0x6f, 0xca, 0xbc, 0xed, 0x86,
    0x46, 0x3d, 0xef, 0xec, 0x10, 0x3d, 0xca, 0xeb, 0x2c, 0x3d,
    0xdb, 0x77, 0x7b, 0x3c, 0x62, 0x4c, 0xf5, 0xbc, 0x1a, 0xf4,
    0xe5, 0x3d, 0x60, 0x1d, 0xf5, 0x3c, 0x1e, 0xb7, 0x61, 0x3c,
    0x2b, 0x6c, 0x42, 0xbd, 0xf1, 0xc9, 0x87, 0xbd, 0x88, 0x40,
    0xa9, 0x3d, 0x9a, 0x25, 0xb0, 0x3d, 0x7d, 0xcb, 0x58, 0xbb,
    0x05, 0x21, 0x3c, 0xbd, 0x22, 0x17, 0xbd, 0x3d, 0x2d, 0x38,
    0x5d, 0xbc, 0x2f, 0x78, 0x2a, 0xbd, 0x7f, 0x22, 0x02, 0xbd,
    0x94, 0x15, 0x31, 0x3d, 0xbf, 0xd6, 0xb3, 0x3a, 0x7e, 0x0b,
    0xd9, 0x3d, 0x80, 0x0c, 0x53, 0x3d, 0xde, 0x81, 0x61, 0x3d,
    0x0c, 0x89, 0x6a, 0x3d, 0x07, 0x1f, 0x7a, 0xbd, 0xb5, 0x0d,
    0x00, 0x3e, 0x60, 0x5c, 0x98, 0x3c, 0x3d, 0x27, 0xf6, 0x3c,
    0xe7, 0xc8, 0x8e, 0x3d, 0xde, 0x8c, 0xcc, 0x3d, 0x65, 0x0a,
    0xe5, 0x3d, 0x95, 0xe4, 0x9e, 0x3d, 0xaa, 0x14, 0xd2, 0x3d,
    0x86, 0xfd, 0x04, 0x3d, 0x1d, 0xd6, 0x80, 0xbd, 0x44, 0x7f,
    0xfe, 0x3c, 0xb6, 0xc8, 0x0d, 0x3d, 0x57, 0x39, 0x9b, 0xbd,
    0xa0, 0xdd, 0x69, 0xbd, 0x99, 0xbe, 0xf8, 0xbc, 0xb5, 0x26,
    0xf5, 0x3b, 0x22, 0x4d, 0xb2, 0x3d, 0xf3, 0xab, 0x3f, 0x3d,
    0x68, 0x63, 0x1a, 0x3d, 0x64, 0xe6, 0xc6, 0x3c, 0x68, 0x9b,
    0xee, 0xbc, 0x1f, 0x8c, 0xbe, 0x3d, 0x7e, 0x1e, 0x70, 0xbd,
    0x8b, 0x72, 0x0b, 0xbd, 0xaa, 0x8c, 0xeb, 0x3a, 0x98, 0xa4,
    0x8a, 0x3d, 0x43, 0xf2, 0x91, 0xbb, 0xac, 0x0d, 0x6c, 0x3c,
    0x8a, 0xe3, 0xb4, 0x3c, 0x3c, 0xab, 0xf9, 0x3c, 0xac, 0x1f,
    0xb9, 0xbd, 0x9b, 0x06, 0x25, 0xbd, 0xf5, 0xb7, 0x63, 0xbd,
    0x6f, 0xe1, 0x4d, 0xbd, 0xab, 0x0a, 0xe5, 0x3c, 0xb4, 0xcd,
    0x20, 0xbd, 0xe0, 0x76, 0x12, 0x3d, 0x8d, 0x08, 0x41, 0x3d,
    0xc5, 0x7b, 0x97, 0x3d, 0x70, 0x9a, 0xdf, 0x3c, 0x7d, 0x8d,
    0x7e, 0xbd, 0xea, 0x17, 0x00, 0x3d, 0x9d, 0x40, 0xa9, 0x3d,
    0x31, 0xff, 0x80, 0x3d, 0x58, 0x5c, 0xe3, 0xbc, 0xca, 0xc0,
    0xea, 0x3d, 0x05, 0xe6, 0xfe, 0x3c, 0xf6, 0xd8, 0x6e, 0x3d,
    0xe4, 0x25, 0x4b, 0x3d, 0x84, 0xda, 0x60, 0xbc, 0xd5, 0x9a,
    0x3d, 0xbd, 0xb7, 0x9c, 0xb3, 0xbc, 0x13, 0xc0, 0x95, 0xbd,
    0x26, 0x42, 0x71, 0xbd, 0xe1, 0x06, 0x8c, 0x3d, 0x57, 0x29,
    0xa2, 0x3d, 0xc0, 0x2f, 0xd5, 0xbc, 0x4f, 0xed, 0xa6, 0x3d,
    0xd4, 0xf7, 0xbb, 0x3c, 0xe7, 0x26, 0xfa, 0x3c, 0xb2, 0x4f,
    0x34, 0xbd, 0x4d, 0xf1, 0x6c, 0xbc, 0x67, 0x33, 0x84, 0x3d,
    0x17, 0x6d, 0x05, 0xbd, 0x90, 0x8c, 0x83, 0x3d, 0x74, 0x7a,
    0x4e, 0x3d, 0x11, 0xa3, 0x4c, 0x3d, 0x7d, 0xea, 0x9f, 0xbb,
    0xde, 0x6f, 0x37, 0x3d, 0x53, 0x55, 0xd0, 0x3c, 0x73, 0x5f,
    0x60, 0x3d, 0x67, 0xb9, 0xab, 0x3d, 0xdf, 0xb3, 0x28, 0xbd,
    0x62, 0xb2, 0x9e, 0x3d, 0xcc, 0xcf, 0x0e, 0x3d, 0xec, 0x07,
    0xa8, 0x3d, 0xc0, 0x39, 0x70, 0xbd, 0x1f, 0xd6, 0x0c, 0x3a,
    0x8e, 0x0d, 0xb6, 0x3d, 0x76, 0xd9, 0x8c, 0x3c, 0x43, 0x0a,
    0x92, 0x3d, 0xfb, 0x69, 0x5a, 0xbd, 0x08, 0xe2, 0xdd, 0x3c,
    0xda, 0xdc, 0x8f, 0x3c, 0xcc, 0xe4, 0xe2, 0xbc, 0xec, 0xbd,
    0xc3, 0x3d, 0xf3, 0x8c, 0x88, 0x3c, 0xaf, 0xf2, 0xdd, 0x3d,
    0xa8, 0x0e, 0xbf, 0xbc, 0x21, 0xf5, 0x91, 0xbc, 0xc4, 0x7c,
    0x70, 0xbc, 0x1f, 0xac, 0x0d, 0xbd, 0x2e, 0xed, 0xbb, 0x3d,
    0xcd, 0x40, 0xdc, 0xbd, 0xee, 0x2c, 0x96, 0xbd, 0x34, 0xef,
    0x83, 0xba, 0xb6, 0xfa, 0xb8, 0xbd, 0xd9, 0x78, 0x41, 0x3b,
    0x0e, 0x75, 0xc4, 0xbd, 0x34, 0x1c, 0xfa, 0xbc, 0x87, 0xa4,
    0x9f, 0xbd, 0xfe, 0x55, 0x0f, 0x3d, 0xcc, 0xf4, 0x13, 0xbe,
    0x1b, 0x87, 0xc1, 0xbd, 0x61, 0x15, 0x72, 0xbd, 0x25, 0x75,
    0x0e, 0x3d, 0xf0, 0xd2, 0x93, 0xbc, 0x50, 0xfc, 0x9f, 0xbd,
    0x7b, 0x77, 0x26, 0x3d, 0x43, 0x0c, 0x97, 0xbd, 0xe8, 0x0b,
    0x49, 0xbb, 0xc6, 0xfd, 0x1d, 0x3c, 0xbe, 0x2f, 0x60, 0x3d,
    0x10, 0x04, 0x57, 0xbe, 0xf4, 0xeb, 0x40, 0xbd, 0xb9, 0xf8,
    0xb9, 0xbd, 0x9f, 0x18, 0x6e, 0x3d, 0xce, 0x26, 0xd6, 0xbd,
    0x75, 0xe3, 0x45, 0xbd, 0x5d, 0x8b, 0x80, 0xbd, 0x0a, 0xaf,
    0xb6, 0xbd, 0x1f, 0x54, 0xdd, 0x3c, 0x8e, 0x60, 0xd0, 0xbd,
    0xde, 0x99, 0x5b, 0xbd, 0x59, 0x9f, 0xe3, 0xbd, 0x52, 0x46,
    0xdd, 0xbd, 0x4c, 0xdf, 0x2d, 0xbd, 0x83, 0x09, 0xb7, 0xbd,
    0x9e, 0x03, 0x8d, 0x3d, 0xc2, 0xc3, 0xb0, 0xbc, 0x61, 0x3e,
    0xb7, 0x3d, 0xd8, 0x51, 0xa6, 0x3d, 0x33, 0x04, 0xa4, 0xbc,
    0x29, 0x3b, 0x6a, 0xbe, 0x0b, 0x24, 0x8e, 0x3c, 0x01, 0xe6,
    0xa3, 0x3c, 0x9b, 0x1e, 0x58, 0xbc, 0x4d, 0x3f, 0xd7, 0x3c,
    0x62, 0x28, 0xf7, 0xbb, 0x3b, 0xb9, 0xc6, 0xbd, 0x9b, 0x70,
    0x48, 0xbe, 0xf8, 0xf5, 0x1f, 0xbd, 0x68, 0x08, 0x33, 0xbd,
    0x26, 0xb3, 0x0a, 0x3d, 0x83, 0x39, 0x32, 0x3d, 0xfa, 0x9d,
    0xb5, 0x3c, 0x78, 0x28, 0x33, 0x3d, 0xe2, 0x4e, 0xde, 0x3c,
    0x7d, 0xc7, 0x3b, 0x3d, 0xa4, 0x20, 0x55, 0x3d, 0x5e, 0x14,
    0xce, 0xbb, 0xc7, 0x2c, 0xae, 0x3c, 0x57, 0xcd, 0x37, 0x3c,
    0x90, 0x95, 0x93, 0xbe, 0x71, 0xb7, 0x33, 0xbd, 0xc1, 0x80,
    0xbf, 0x3c, 0xa9, 0x00, 0x8d, 0xbd, 0x9c, 0xf6, 0xa4, 0xbd,
    0x3c, 0x07, 0xd7, 0xbd, 0x29, 0xa4, 0x87, 0xbd, 0x68, 0x5e,
    0x3d, 0xbd, 0x66, 0x71, 0x99, 0x3d, 0x4f, 0x61, 0x9e, 0xbd,
    0x71, 0x26, 0xa5, 0xbd, 0xe3, 0x52, 0xa5, 0xbd, 0x23, 0x13,
    0x3e, 0xbc, 0xd7, 0xc0, 0xd4, 0x3c, 0x34, 0xac, 0xeb, 0xbc,
    0x79, 0x22, 0x80, 0x3b, 0xe1, 0xf5, 0x05, 0xbd, 0xf4, 0xea,
    0x2f, 0x3d, 0x2a, 0x56, 0x0b, 0xbd, 0x05, 0xab, 0xd6, 0xbc,
    0xd8, 0xe4, 0x7b, 0xbe, 0x88, 0xd5, 0xe5, 0x3c, 0xd1, 0x73,
    0xd8, 0xbd, 0x34, 0x0d, 0x66, 0xbd, 0xfe, 0x61, 0x8f, 0xbd,
    0x25, 0xcf, 0x71, 0xbc, 0x1c, 0xbb, 0x9b, 0xbc, 0x03, 0x09,
    0x28, 0xbe, 0x46, 0x16, 0xca, 0xbb, 0xbe, 0xb4, 0x04, 0xbd,
    0xce, 0x26, 0x22, 0xbd, 0xd0, 0x91, 0x8d, 0xbc, 0x24, 0xe6,
    0xd0, 0xbc, 0xe2, 0xa8, 0x66, 0xbd, 0xc8, 0x15, 0xf8, 0x3c,
    0xf2, 0xae, 0x7a, 0x3d, 0x4e, 0xc5, 0xb4, 0xbb, 0xd9, 0x8b,
    0x4d, 0xbd, 0x11, 0xd7, 0xb3, 0x3d, 0x3c, 0xd0, 0xc2, 0x3d,
    0xf1, 0xa8, 0x5d, 0xbe, 0x1a, 0xd8, 0x1a, 0x3d, 0x54, 0x6a,
    0xa0, 0xbd, 0x22, 0x56, 0x93, 0xbd, 0xc8, 0x34, 0xe6, 0x3b,
    0x81, 0x09, 0xd8, 0xbd, 0x7e, 0xa9, 0xb2, 0x3d, 0xb7, 0x28,
    0x29, 0xbe, 0xc3, 0x9f, 0x3b, 0xbc, 0x46, 0x17, 0x69, 0xbd,
    0x0b, 0x8e, 0x0f, 0xbc, 0x86, 0x3d, 0xa0, 0xbc, 0x35, 0xa4,
    0xb2, 0xbd, 0xb9, 0xd2, 0x89, 0xbd, 0x0f, 0xe4, 0x10, 0xbd,
    0xcb, 0x2f, 0x05, 0x3d, 0xea, 0x45, 0x5d, 0x3d, 0xa6, 0x66,
    0xf8, 0xbc, 0x9a, 0xce, 0x0e, 0x3d, 0x28, 0xe0, 0x0a, 0x3e,
    0x4d, 0xab, 0x5b, 0xbe, 0x25, 0x98, 0x82, 0xbd, 0x21, 0x35,
    0xa4, 0x3d, 0xef, 0xb9, 0x3d, 0x3c, 0x6b, 0xec, 0xca, 0xbd,
    0x5b, 0x45, 0x3d, 0x3d, 0x1b, 0xf7, 0x67, 0xbc, 0xf2, 0x7a,
    0x10, 0xbc, 0x50, 0x37, 0x40, 0xbd, 0x23, 0x61, 0xd2, 0xbc,
    0xa9, 0x7d, 0x8e, 0xbb, 0xea, 0x45, 0xa4, 0x3c, 0xea, 0x64,
    0x16, 0xbd, 0xfc, 0x59, 0xc1, 0xbd, 0x02, 0x37, 0x93, 0x3c,
    0x11, 0xd7, 0x3a, 0xbd, 0x00, 0x36, 0xcb, 0xbc, 0x05, 0x1c,
    0x0e, 0xbd, 0xac, 0x9a, 0x98, 0xbd, 0x16, 0xe3, 0xc5, 0x3c,
    0x42, 0xf2, 0x0c, 0x3e, 0xf6, 0x93, 0x18, 0x3d, 0x1c, 0xc4,
    0xde, 0xbc, 0x71, 0xe4, 0x8b, 0xbc, 0x03, 0x6b, 0xd0, 0x3b,
    0x71, 0x49, 0xb0, 0x3c, 0xd3, 0xbc, 0x23, 0xbc, 0x7b, 0x03,
    0x8c, 0x3d, 0xff, 0x3e, 0xf0, 0xbd, 0x67, 0x17, 0x4f, 0x3b,
    0x83, 0x4f, 0xe8, 0xbd, 0xdc, 0x3c, 0xc5, 0xbd, 0xb7, 0xd7,
    0x65, 0x3d, 0xdd, 0x24, 0x3e, 0xbd, 0x79, 0xb2, 0x9b, 0x3c,
    0xcd, 0x19, 0x73, 0x3d, 0x82, 0x67, 0x36, 0xbd, 0x9d, 0x31,
    0xbc, 0x3c, 0xc5, 0x84, 0x8b, 0xbc, 0xc2, 0xe9, 0x3c, 0xbd,
    0x1a, 0x8a, 0x02, 0x3e, 0xbf, 0xe9, 0xe3, 0xba, 0x10, 0x03,
    0x91, 0x3d, 0xab, 0x0b, 0x00, 0x3d, 0x71, 0x3f, 0x62, 0x3d,
    0x2a, 0x6f, 0x01, 0xbd, 0xe0, 0x83, 0x45, 0x3d, 0x27, 0x7d,
    0xb6, 0xbb, 0xdb, 0x2e, 0x93, 0xbd, 0x37, 0x7d, 0x11, 0x3d,
    0x55, 0x91, 0xfd, 0xbc, 0xcc, 0x25, 0x6b, 0xbc, 0x03, 0xf8,
    0xbe, 0x3c, 0xba, 0x10, 0xab, 0x3d, 0xbb, 0x87, 0xe3, 0xbc,
    0x28, 0xb8, 0x55, 0x3c, 0xd5, 0x8a, 0x30, 0x3d, 0x94, 0xc8,
    0x02, 0xbd, 0x71, 0x7f, 0xcd, 0xbc, 0xd5, 0x25, 0x64, 0x3d,
    0x84, 0x51, 0xc3, 0x3d, 0x32, 0x42, 0xbe, 0xba, 0x39, 0x82,
    0xe9, 0xbc, 0xe6, 0x47, 0x55, 0x3d, 0x4f, 0xa4, 0x57, 0xbc,
    0x1c, 0xa3, 0xa3, 0xbd, 0x4a, 0x61, 0x43, 0xbd, 0x2b, 0x59,
    0x72, 0x3d, 0xe8, 0x9c, 0x57, 0xbb, 0x2f, 0x7c, 0x05, 0xbd,
    0x66, 0xf6, 0xa8, 0x3c, 0xd3, 0x06, 0x8b, 0x3d, 0x2e, 0x68,
    0xf0, 0x3c, 0x8d, 0x57, 0x3d, 0xbd, 0x25, 0xed, 0x4d, 0xbd,
    0x60, 0x4b, 0xae, 0x3d, 0x12, 0x3a, 0x82, 0xbc, 0x73, 0x1b,
    0xf8, 0xbb, 0x75, 0x6a, 0x22, 0xbd, 0x37, 0x75, 0x36, 0xbd,
    0x1f, 0x5c, 0x58, 0xbd, 0xf9, 0x6e, 0x23, 0xbd, 0x04, 0x5b,
    0x9c, 0xbc, 0xec, 0xaa, 0xd0, 0xbb, 0x7a, 0x27, 0xa2, 0xbd,
    0x3d, 0x8c, 0x6e, 0xbc, 0xdb, 0xc9, 0x5a, 0xbd, 0xa5, 0xc3,
    0xbb, 0x3d, 0x7f, 0xe5, 0xb7, 0xbc, 0xc2, 0xee, 0x23, 0x3d,
    0x27, 0x66, 0xef, 0x3a, 0x0b, 0xce, 0xbb, 0xbb, 0x8c, 0xea,
    0x9d, 0xbc, 0x98, 0xfb, 0xd1, 0xbc, 0xf6, 0x21, 0xc5, 0xbc,
    0x1a, 0x4c, 0x55, 0xbd, 0x5b, 0x4c, 0xfd, 0x3c, 0x09, 0x49,
    0x1e, 0x3c, 0x0b, 0x0c, 0x60, 0x3c, 0x62, 0x6c, 0x84, 0x3d,
    0x8d, 0x33, 0xf4, 0xba, 0x38, 0x0c, 0x4d, 0x3d, 0x82, 0xd5,
    0x58, 0x3d, 0xc3, 0xe0, 0x86, 0xbd, 0x1e, 0xff, 0x9f, 0xbd,
    0x90, 0x23, 0xdc, 0xbc, 0xc5, 0x3f, 0x3d, 0xbd, 0xda, 0x7f,
    0xb5, 0xbc, 0x41, 0x88, 0xb5, 0x3d, 0x3e, 0xa9, 0x22, 0x3c,
    0x7d, 0x68, 0x7b, 0xbd, 0x67, 0xda, 0x61, 0xbd, 0x7c, 0x3d,
    0x9b, 0xbc, 0x2d, 0xb5, 0x59, 0xbd, 0x9a, 0x3f, 0x7b, 0x3c,
    0x69, 0x1a, 0x14, 0xbd, 0xc8, 0x75, 0xb4, 0x3c, 0x51, 0x81,
    0xdf, 0xbc, 0x54, 0xa6, 0x39, 0xbc, 0x8b, 0x4b, 0x1b, 0xbd,
    0x2f, 0x88, 0xc0, 0x3d, 0x7f, 0xf9, 0x97, 0x3d, 0xb0, 0x33,
    0x25, 0xbc, 0x89, 0x0e, 0x89, 0x3d, 0xd7, 0x1d, 0x2c, 0xbd,
    0x56, 0xc0, 0xd7, 0x3d, 0x6c, 0xd0, 0x3a, 0x3c, 0x49, 0xc9,
    0x05, 0x3c, 0x7c, 0x2f, 0xcc, 0xbc, 0x38, 0x34, 0x4e, 0xbd,
    0x36, 0xd0, 0xc0, 0xbd, 0x74, 0x37, 0xd2, 0xbc, 0xbf, 0x1d,
    0x99, 0xbd, 0xa2, 0xe4, 0x02, 0x3d, 0xf0, 0x73, 0x20, 0x3c,
    0x62, 0xcf, 0xa2, 0xbd, 0x64, 0x5d, 0x3a, 0x3d, 0xb6, 0x10,
    0x14, 0xbd, 0xdf, 0xe3, 0x4f, 0x3d, 0xe4, 0x62, 0xa1, 0x3c,
    0xb6, 0xf0, 0xdd, 0x3d, 0xfa, 0xac, 0x2b, 0xbc, 0x46, 0x71,
    0xa8, 0x3c, 0xff, 0xb8, 0xc0, 0x3c, 0xef, 0x21, 0xb8, 0x3b,
    0x58, 0xe4, 0x36, 0xbd, 0xe8, 0xfa, 0xce, 0x3c, 0xa7, 0x0c,
    0xf3, 0x3c, 0x41, 0x37, 0xd2, 0x3c, 0x78, 0x0c, 0xd7, 0x3d,
    0xc9, 0xad, 0x4c, 0xbd, 0x54, 0x3a, 0x6a, 0x3d, 0x99, 0x03,
    0x56, 0xbd, 0xfd, 0x3f, 0xf1, 0x3c, 0xd5, 0xed, 0x0a, 0x3d,
    0x41, 0x68, 0xe9, 0x3c, 0x08, 0x64, 0x92, 0x3c, 0xc0, 0x46,
    0x13, 0xbd, 0x6c, 0xfe, 0xc8, 0xbc, 0xc0, 0x1b, 0xb5, 0x3d,
    0xfe, 0xa9, 0xad, 0xbd, 0xf3, 0x77, 0x07, 0x3e, 0xae, 0xff,
    0x81, 0xbc, 0xa7, 0x4b, 0x8d, 0x3b, 0xb4, 0x7b, 0x63, 0x3d,
    0xf7, 0x5f, 0xe2, 0xbd, 0x31, 0x09, 0xd9, 0xbc, 0x11, 0xd8,
    0x8c, 0xbd, 0xac, 0x0c, 0x95, 0x3d, 0x2c, 0x01, 0x61, 0x3d,
    0x40, 0x17, 0x3d, 0xbd, 0x96, 0x4f, 0x87, 0x3c, 0x67, 0xd7,
    0x1a, 0xbc, 0xa0, 0x10, 0x2e, 0xbd, 0xca, 0x74, 0x1c, 0xbd,
    0x09, 0x4a, 0x42, 0xbd, 0x87, 0x36, 0x27, 0xbd, 0x02, 0xe1,
    0xe0, 0x3d, 0x90, 0x6d, 0xfa, 0x3d, 0xea, 0x0d, 0x21, 0x3e,
    0x6b, 0x8e, 0xbf, 0xbd, 0xa7, 0xb4, 0x2c, 0x3d, 0xb7, 0xc8,
    0x15, 0xbc, 0x99, 0xef, 0x4f, 0x3c, 0x4f, 0xcf, 0x95, 0x3c,
    0xa9, 0xfb, 0x8f, 0x3d, 0x9c, 0xb6, 0xd7, 0x3c, 0x13, 0x8a,
    0xae, 0xbd, 0xa5, 0x06, 0x0b, 0xbe, 0x82, 0xa3, 0x4b, 0x3c,
    0x05, 0x44, 0x9c, 0xbd, 0x89, 0x2a, 0xa9, 0xbd, 0x85, 0x97,
    0xd0, 0x3c, 0x62, 0x6b, 0xbe, 0xbd, 0x27, 0xb9, 0x3c, 0xbb,
    0x17, 0xab, 0xa4, 0xbd, 0x1a, 0x7a, 0xb9, 0x3d, 0xbd, 0x76,
    0x51, 0x3d, 0xd9, 0x9e, 0x13, 0xbc, 0x5f, 0x4a, 0x12, 0x3e,
    0x2c, 0x7a, 0xbd, 0xbc, 0xb5, 0xe4, 0x9e, 0x3d, 0x0d, 0x7c,
    0x09, 0xbd, 0xe0, 0x4f, 0xad, 0xbd, 0x58, 0x46, 0x88, 0xbd,
    0xc9, 0x1c, 0x8a, 0xbc, 0xa5, 0xaf, 0x40, 0xbd, 0xec, 0xa6,
    0xdd, 0x3c, 0xd6, 0xd4, 0x58, 0xbd, 0xe3, 0x58, 0x9f, 0xbc,
    0x27, 0x0c, 0x78, 0xbd, 0xbc, 0xfd, 0xa8, 0xbd, 0x78, 0x8f,
    0x09, 0xbd, 0x4f, 0x5b, 0x2f, 0xbd, 0x01, 0x31, 0xed, 0xbc,
    0x13, 0x43, 0x34, 0xbd, 0xcd, 0x42, 0xd0, 0x3d, 0x88, 0xb0,
    0xdd, 0x3a, 0x3d, 0x84, 0x49, 0x3d, 0xf7, 0xb7, 0x97, 0x3d,
    0x53, 0x84, 0xa8, 0xbd, 0xe2, 0xb1, 0x88, 0x3d, 0xd4, 0xb4,
    0xde, 0xbc, 0x4b, 0x39, 0x2f, 0xbd, 0xaf, 0xfb, 0x81, 0xbb,
    0x43, 0xc7, 0x4f, 0xbd, 0xbf, 0x01, 0x07, 0xbc, 0x57, 0x3d,
    0x45, 0xbd, 0xfb, 0xc7, 0x8c, 0x3c, 0x91, 0x6c, 0x9d, 0xbd,
    0x67, 0xcd, 0x8f, 0x3c, 0x6e, 0x2c, 0x75, 0xbc, 0x70, 0xaa,
    0xc6, 0xbc, 0x02, 0x33, 0xc7, 0x3d, 0x7b, 0xa7, 0xb2, 0xbd,
    0x84, 0x74, 0x25, 0x3b, 0xee, 0xe0, 0x8e, 0xbd, 0x2e, 0xc6,
    0xaf, 0xbc, 0x78, 0x2f, 0x99, 0x3d, 0x92, 0xaa, 0xa2, 0x3c,
    0xee, 0x4d, 0xae, 0xbd, 0x37, 0xc1, 0xc5, 0x3d, 0xd7, 0x57,
    0xbe, 0x3d, 0xe4, 0x91, 0x98, 0xbc, 0xb7, 0x33, 0x59, 0x3c,
    0x90, 0xc4, 0xee, 0xbc, 0x35, 0x34, 0xd9, 0x3c, 0x11, 0x59,
    0x90, 0xbd, 0x3d, 0x65, 0x9d, 0xbc, 0x62, 0x31, 0xba, 0xbd,
    0x71, 0x05, 0x1f, 0xbb, 0x07, 0x0e, 0xff, 0x3a, 0x80, 0xf2,
    0xd6, 0xbc, 0x03, 0x2b, 0xb7, 0xbd, 0x72, 0xc4, 0xdc, 0x3c,
    0x88, 0x0f, 0x94, 0xbd, 0xee, 0xdd, 0x8d, 0x3d, 0x9d, 0xaf,
    0xd9, 0x3c, 0x75, 0x2f, 0x94, 0x3c, 0x1f, 0x13, 0xde, 0x3c,
    0x30, 0xde, 0x9e, 0xbc, 0xe8, 0x0a, 0xee, 0xbb, 0x38, 0x69,
    0x38, 0xbd, 0xa2, 0x38, 0x77, 0xbd, 0x49, 0x54, 0xa9, 0xbd,
    0xf0, 0x41, 0x47, 0xbc, 0x9d, 0x0e, 0x1d, 0x3d, 0x6c, 0x58,
    0x36, 0xbd, 0x95, 0xb0, 0x85, 0xbd, 0xf5, 0xfd, 0x5d, 0x3d,
    0x69, 0x01, 0x89, 0xbd, 0x69, 0x2d, 0xc1, 0xbc, 0x72, 0x8c,
    0xd8, 0x3a, 0x46, 0x9d, 0xdf, 0x3c, 0x00, 0xce, 0x05, 0xbe,
    0x94, 0x18, 0x97, 0x3c, 0xce, 0x20, 0x91, 0x3d, 0xaf, 0xd6,
    0xff, 0x3c, 0x7c, 0xa1, 0x0a, 0x3c, 0xf9, 0x87, 0x8d, 0xbc,
    0x9c, 0x9c, 0xd0, 0x3c, 0x9e, 0x28, 0xe0, 0x3d, 0xbc, 0xbf,
    0xb6, 0xbc, 0x78, 0x65, 0xaa, 0xbd, 0xeb, 0x7b, 0x45, 0x3c,
    0x22, 0xd7, 0x73, 0x3c, 0xb6, 0x4c, 0x44, 0x3c, 0x07, 0x54,
    0x89, 0xbc, 0xcf, 0x50, 0x7e, 0xbd, 0xa8, 0x79, 0x9f, 0x3b,
    0x4b, 0xec, 0xfb, 0xbb, 0xe4, 0xcd, 0xe2, 0xbc, 0x18, 0xe8,
    0x44, 0xbc, 0xc6, 0x28, 0x83, 0xbb, 0x0a, 0x58, 0x07, 0x3d,
    0x97, 0x44, 0xa4, 0xbb, 0xbf, 0xb9, 0x86, 0x3d, 0xb9, 0x89,
    0xe8, 0x3d, 0xf4, 0xf3, 0x25, 0x3d, 0x83, 0x50, 0xd3, 0x3d,
    0x91, 0xe3, 0xb5, 0x3d, 0x08, 0x16, 0x11, 0xbd, 0xe2, 0x28,
    0x70, 0xbd, 0xb1, 0x70, 0xa4, 0xbc, 0xf3, 0x69, 0x04, 0xbb,
    0x97, 0x25, 0xeb, 0xbc, 0xd8, 0x74, 0x32, 0xbd, 0xba, 0x15,
    0x73, 0xbb, 0x83, 0xee, 0x3a, 0x3c, 0x13, 0x16, 0x81, 0x3c,
    0xed, 0x74, 0x9b, 0xbc, 0xd1, 0x1a, 0x3f, 0xbd, 0x2b, 0x36,
    0xcb, 0xbd, 0xc9, 0x55, 0xdf, 0x3d, 0xa0, 0xe1, 0x03, 0xbe,
    0x2b, 0x8c, 0x3c, 0x3c, 0xa5, 0xb5, 0xc7, 0xbd, 0xaf, 0xef,
    0xa6, 0x3c, 0xe3, 0x5a, 0xe9, 0xbd, 0x54, 0x07, 0x81, 0xbd,
    0xb5, 0x16, 0x79, 0x3c, 0xe4, 0x7e, 0xfa, 0xbd, 0x05, 0x09,
    0x56, 0xbc, 0x0c, 0x73, 0xaf, 0x3d, 0x1d, 0x3f, 0x6c, 0x3d,
    0x3f, 0x94, 0x94, 0x3a, 0x16, 0xf8, 0xd5, 0xbc, 0xda, 0xf2,
    0x00, 0xbd, 0xe2, 0x44, 0x52, 0x3d, 0x0b, 0x94, 0x7c, 0xbd,
    0xb0, 0x20, 0x6f, 0xbc, 0x9f, 0xc5, 0xb4, 0xbb, 0x4a, 0xbf,
    0x87, 0x3d, 0xaf, 0xd4, 0xc5, 0xbc, 0x4d, 0xa0, 0xa1, 0xbd,
    0x01, 0x16, 0x12, 0xbd, 0x86, 0x2f, 0xb0, 0xbc, 0xbd, 0x37,
    0xe1, 0xbd, 0xe4, 0x01, 0xea, 0xbd, 0xdb, 0xb8, 0xbb, 0x3b,
    0x67, 0x19, 0x88, 0xba, 0xbd, 0xf3, 0xfa, 0xbd, 0x28, 0xfd,
    0x68, 0x3c, 0xb9, 0xce, 0x2d, 0x3d, 0x94, 0x5d, 0xb1, 0x3c,
    0x61, 0xe2, 0xfa, 0x3c, 0xd2, 0x47, 0x38, 0xbd, 0xc1, 0xb7,
    0x11, 0x3e, 0x01, 0xbf, 0xc0, 0xbc, 0x9c, 0xc3, 0x0b, 0x3d,
    0x4b, 0x81, 0x23, 0xbd, 0xc8, 0x3b, 0x6f, 0x3d, 0xc4, 0x60,
    0x20, 0x3d, 0xc2, 0x40, 0x81, 0x3d, 0x07, 0xf1, 0x3e, 0xbd,
    0x9f, 0xa1, 0x3a, 0xbb, 0x6c, 0x1f, 0x4d, 0xbd, 0x13, 0xc7,
    0x8f, 0xbd, 0xe7, 0x2c, 0xc1, 0xbd, 0x53, 0xca, 0xa0, 0xbd,
    0x53, 0x62, 0x1d, 0xbc, 0xf6, 0x59, 0x76, 0xbd, 0x78, 0x08,
    0x5d, 0x3c, 0xbc, 0xfc, 0x9c, 0x3d, 0x88, 0x0e, 0xcf, 0x3d,
    0xd9, 0xbb, 0xc2, 0x3b, 0xf2, 0x32, 0x3e, 0xbe, 0x1b, 0x07,
    0xc0, 0xbc, 0x93, 0x5a, 0x19, 0x3e, 0x15, 0x3f, 0x67, 0xbd,
    0x18, 0x16, 0x4d, 0x3e, 0x91, 0xc3, 0x11, 0x3d, 0x57, 0x8f,
    0x17, 0x3e, 0x2a, 0x2f, 0xaa, 0x3d, 0xf7, 0xc2, 0x14, 0xbe,
    0x69, 0x9b, 0x88, 0x3d, 0x0b, 0xd1, 0xa1, 0xbd, 0x06, 0x82,
    0x4d, 0xbe, 0x97, 0x99, 0x3e, 0xbd, 0xc9, 0xba, 0x35, 0xbe,
    0x0e, 0xa1, 0x2a, 0x3c, 0xa4, 0x06, 0xfd, 0xbd, 0xf8, 0x1c,
    0x40, 0xbc, 0x63, 0x88, 0xec, 0x3d, 0x89, 0x5b, 0xab, 0x3d,
    0xa5, 0x75, 0xf0, 0x3d, 0xc3, 0x25, 0xcd, 0xbd, 0x94, 0x80,
    0xdf, 0x3b, 0xa0, 0x12, 0xeb, 0x3c, 0xfd, 0xd6, 0x10, 0x3d,
    0x57, 0x20, 0x62, 0x3e, 0x50, 0x28, 0xac, 0x3d, 0xd8, 0x97,
    0x87, 0x3d, 0x18, 0xc4, 0x2f, 0x3d, 0x82, 0x56, 0x28, 0xbe,
    0x16, 0x67, 0x9f, 0xbc, 0x40, 0x4a, 0x3d, 0xbe, 0x08, 0x9f,
    0x9c, 0xbd, 0x79, 0x3d, 0x19, 0xbe, 0x9c, 0xcb, 0xb3, 0xbd,
    0x20, 0x2e, 0xe1, 0x3c, 0xf4, 0x1a, 0x10, 0xbe, 0x41, 0x91,
    0x89, 0xbd, 0x0e, 0xd3, 0x40, 0x3d, 0xcc, 0xbe, 0xaf, 0x3d,
    0xf9, 0x15, 0x04, 0xbd, 0xa5, 0x24, 0xaf, 0xbc, 0xe2, 0x6c,
    0x88, 0xbd, 0x11, 0x96, 0x38, 0x3d, 0xef, 0x5f, 0xa0, 0xbd,
    0xf6, 0x74, 0x83, 0x3c, 0x00, 0xc8, 0x4f, 0x3d, 0x25, 0x35,
    0x4a, 0x3d, 0x07, 0xf5, 0x84, 0x3d, 0x7a, 0x22, 0x90, 0xbd,
    0xdc, 0xbc, 0x5b, 0xbc, 0xee, 0x57, 0xd9, 0xbd, 0x15, 0x0e,
    0xab, 0xbd, 0x92, 0x79, 0x08, 0xbe, 0xf8, 0x72, 0x88, 0xbc,
    0xd1, 0x97, 0x13, 0x3e, 0x10, 0x7f, 0x49, 0x3d, 0x8f, 0x0e,
    0xc7, 0x3c, 0x44, 0xac, 0x83, 0x3c, 0x47, 0x22, 0xe0, 0xbb,
    0x65, 0x4c, 0xc0, 0xbc, 0x34, 0xde, 0x78, 0x3b, 0xaa, 0xbb,
    0xa8, 0xbc, 0x81, 0x65, 0x99, 0xbc, 0x95, 0x6c, 0x87, 0x3d,
    0x3b, 0x77, 0x69, 0x3d, 0x45, 0xf3, 0x04, 0xbd, 0xd1, 0xd0,
    0x4d, 0xbd, 0xd9, 0x4f, 0x79, 0xbc, 0xe6, 0x33, 0xe3, 0xbd,
    0xd7, 0x55, 0xbb, 0xbd, 0x4f, 0x8d, 0x7f, 0xbd, 0xd0, 0x79,
    0x21, 0x3c, 0xcb, 0xd9, 0x14, 0xbc, 0x34, 0x89, 0x71, 0xbd,
    0x52, 0xda, 0xce, 0xbd, 0x7e, 0xde, 0x0c, 0x3e, 0x18, 0x24,
    0x6e, 0xbd, 0x63, 0xca, 0xc5, 0xbd, 0xc7, 0xa3, 0xdc, 0xbd,
    0xe9, 0x3e, 0xca, 0xba, 0x00, 0xc9, 0x8d, 0x3e, 0x5e, 0xc3,
    0x26, 0xbe, 0xb1, 0xce, 0xa9, 0x3d, 0x5d, 0x65, 0x88, 0xbd,
    0x07, 0xfb, 0x12, 0xbd, 0xc7, 0x5d, 0x0c, 0xbe, 0xcc, 0x18,
    0x6e, 0x3d, 0x54, 0x64, 0x82, 0xbd, 0xd5, 0x66, 0x9d, 0x3e,
    0x58, 0x7f, 0x5e, 0xbb, 0x59, 0x7c, 0x57, 0x3e, 0xfa, 0x6e,
    0x69, 0x3e, 0x8d, 0x8b, 0x50, 0x3e, 0xf6, 0x20, 0x2c, 0x3e,
    0xa1, 0x1a, 0x85, 0xbe, 0xb2, 0x71, 0x62, 0x3e, 0xf5, 0x41,
    0xd3, 0xbc, 0x22, 0xe0, 0x80, 0xbc, 0x38, 0xf5, 0xa1, 0xbd,
    0x9b, 0x9b, 0xd3, 0x3c, 0x68, 0x58, 0x53, 0x3e, 0x71, 0x86,
    0xfa, 0xbd, 0x6f, 0x34, 0xb5, 0xbc, 0xe4, 0x0b, 0x9d, 0xbd,
    0x8d, 0x81, 0x8e, 0x3d, 0xeb, 0x61, 0x2b, 0x3c, 0x5f, 0xed,
    0xea, 0x3b, 0xde, 0xfa, 0xb7, 0xbd, 0xe5, 0xf0, 0x90, 0x3e,
    0x99, 0x62, 0xb1, 0xbb, 0x7b, 0xbe, 0x57, 0x3e, 0xe7, 0xe0,
    0x10, 0x3e, 0x37, 0xf4, 0xe8, 0x3d, 0xfd, 0x69, 0x47, 0x3e,
    0xb3, 0xb6, 0xf8, 0xbd, 0x4c, 0x5e, 0x08, 0x3e, 0xf8, 0x8d,
    0x11, 0x3d, 0x6f, 0xdf, 0xe4, 0xbc, 0xae, 0xdb, 0x3f, 0xbd,
    0xb7, 0xb2, 0x4f, 0xbd, 0xde, 0xc8, 0x1f, 0x3e, 0xd4, 0x0d,
    0x98, 0xbd, 0x56, 0x97, 0x4f, 0x3e, 0x0b, 0x9f, 0x67, 0x3c,
    0xf7, 0xc5, 0x0d, 0x3c, 0x60, 0x43, 0x81, 0x3c, 0x74, 0xdc,
    0xe6, 0x3b, 0x94, 0x25, 0x66, 0x3c, 0xfb, 0x5a, 0x27, 0x3e,
    0x1c, 0x36, 0x92, 0xbc, 0xe7, 0x40, 0xd5, 0x3d, 0xc5, 0x67,
    0xbc, 0x3d, 0x8f, 0xef, 0xee, 0x3d, 0xf4, 0x3a, 0x98, 0x3d,
    0x11, 0xc4, 0x24, 0xbe, 0x6d, 0xc8, 0x94, 0x3c, 0x0e, 0x7a,
    0x89, 0xbd, 0x7d, 0xa1, 0x44, 0xbd, 0x43, 0x37, 0xab, 0xbc,
    0x5b, 0xce, 0xc4, 0x3c, 0x19, 0x4b, 0xc6, 0xbc, 0x07, 0xd0,
    0x16, 0xbd, 0xb7, 0x5b, 0xde, 0x3d, 0x9e, 0x9a, 0xed, 0xbd,
    0xfb, 0x4e, 0x73, 0x3c, 0x96, 0x62, 0x88, 0x3b, 0xfe, 0x8f,
    0x8e, 0x3d, 0x58, 0xc6, 0xcb, 0xbd, 0x02, 0xca, 0x4d, 0xbe,
    0x86, 0xe2, 0xc1, 0x3c, 0xb2, 0xee, 0xa7, 0xbd, 0xd5, 0x6f,
    0x12, 0xbe, 0xae, 0xaf, 0xa7, 0x3a, 0x1d, 0xa6, 0xe1, 0xbd,
    0xb2, 0xf6, 0x17, 0xbe, 0x78, 0xde, 0x71, 0x3e, 0x6e, 0x82,
    0x6e, 0x3d, 0x1a, 0x0c, 0x35, 0x3d, 0x88, 0xec, 0x0d, 0x3e,
    0x1b, 0xa7, 0x96, 0x3d, 0x71, 0x98, 0x35, 0x3e, 0xb1, 0xf7,
    0x86, 0xbd, 0x32, 0x58, 0x3f, 0x3d, 0xf6, 0x1b, 0x1d, 0xbe,
    0xe8, 0xb8, 0xce, 0x3d, 0x14, 0x85, 0xb0, 0x3d, 0x55, 0x0e,
    0xeb, 0x3d, 0xb1, 0x1e, 0x72, 0xbd, 0xc8, 0x73, 0x22, 0x3e,
    0x90, 0x59, 0xa2, 0x3d, 0xac, 0x49, 0x79, 0x3e, 0xfe, 0xed,
    0xcc, 0x3d, 0x50, 0xfb, 0x55, 0x3e, 0x08, 0xe6, 0x08, 0x3e,
    0xd1, 0x39, 0x7e, 0xbc, 0xef, 0x86, 0x7c, 0x3d, 0x02, 0x10,
    0x6e, 0xbd, 0x20, 0x63, 0x16, 0xbd, 0xe5, 0x4c, 0xf4, 0xbc,
    0xac, 0x8a, 0xf8, 0xbc, 0xb3, 0xe3, 0xbc, 0x3d, 0x0f, 0xd8,
    0x73, 0x3c, 0x28, 0x26, 0x29, 0xbd, 0x38, 0x4b, 0x03, 0xbe,
    0xc2, 0x7e, 0xf0, 0xbd, 0xd1, 0xfe, 0xfc, 0xbd, 0x57, 0xb2,
    0xbe, 0xbd, 0x81, 0xfc, 0x9a, 0xbd, 0x6e, 0x4b, 0x26, 0x3e,
    0x82, 0x75, 0x93, 0x3c, 0xd6, 0x8e, 0xab, 0x3d, 0x56, 0x0c,
    0x31, 0x3d, 0x90, 0x3c, 0x07, 0x3d, 0x32, 0x9b, 0x91, 0x3d,
    0x7e, 0x2c, 0x15, 0x3d, 0xae, 0xa0, 0x9c, 0x3e, 0x7b, 0xed,
    0x70, 0xbc, 0xa1, 0x6c, 0xf5, 0xbd, 0x8e, 0x82, 0x5c, 0xbe,
    0x66, 0x25, 0x8f, 0xbb, 0x29, 0xde, 0xfc, 0x3e, 0xf8, 0xce,
    0xce, 0x3d, 0x8b, 0x52, 0xc2, 0xbd, 0x48, 0xa3, 0x60, 0xbc,
    0x04, 0x11, 0x3d, 0xbe, 0x9c, 0x67, 0x01, 0xbe, 0xf8, 0x87,
    0x90, 0xbe, 0x8d, 0x86, 0x16, 0xbe, 0xff, 0x42, 0xfd, 0x3e,
    0xaf, 0x87, 0x93, 0xbd, 0xd2, 0xf3, 0x82, 0x3e, 0x62, 0x63,
    0x9b, 0x3e, 0xea, 0x13, 0x7c, 0x3e, 0xc9, 0x37, 0x81, 0x3e,
    0xff, 0x18, 0x17, 0x3d, 0x47, 0x78, 0x8a, 0xbd, 0x71, 0x5e,
    0x1f, 0xbc, 0x20, 0x70, 0x8b, 0x3d, 0xb1, 0xea, 0x93, 0x3d,
    0xb0, 0x33, 0x03, 0x3d, 0x8b, 0x1c, 0xa6, 0xbd, 0x1f, 0xa8,
    0x80, 0x3c, 0x3e, 0xe0, 0x8c, 0x3d, 0xfd, 0xa1, 0x2a, 0xbb,
    0xd2, 0x07, 0x25, 0xbc, 0x8c, 0x42, 0xca, 0x3d, 0x6b, 0xde,
    0xf1, 0x3c, 0x6e, 0x59, 0x83, 0x3b, 0x7d, 0x94, 0xd8, 0xbd,
    0xc4, 0x5f, 0xa4, 0x3d, 0x75, 0x13, 0x66, 0xbd, 0xdc, 0xb1,
    0x1f, 0x3d, 0x05, 0x44, 0x23, 0x3c, 0x64, 0xc9, 0x23, 0xbd,
    0x85, 0x73, 0x1d, 0x3d, 0xd3, 0x5d, 0xef, 0xbb, 0x03, 0x8a,
    0xc9, 0x3d, 0xc1, 0x62, 0x0f, 0x3d, 0x1b, 0x33, 0x49, 0x3d,
    0x6e, 0xba, 0xf1, 0x3c, 0x70, 0xb2, 0x3c, 0xbd, 0x5b, 0xb1,
    0x75, 0x3d, 0x51, 0x36, 0xac, 0xbd, 0x60, 0x35, 0x00, 0x3d,
    0x52, 0x60, 0x1a, 0x3d, 0x66, 0x4f, 0x44, 0x3d, 0x81, 0x83,
    0x3d, 0xbd, 0x0c, 0xef, 0x52, 0x3d, 0x08, 0x86, 0x15, 0xbe,
    0x79, 0xc3, 0x86, 0x3d, 0x5e, 0x4b, 0xfa, 0xb9, 0xe7, 0x60,
    0x9a, 0xbd, 0x28, 0x3c, 0x8c, 0xbd, 0x76, 0x5a, 0xc4, 0xbd,
    0x59, 0x39, 0x2e, 0x3d, 0xe8, 0x04, 0xca, 0x3b, 0xbc, 0xce,
    0xc9, 0x3d, 0x4a, 0xdc, 0x5d, 0xbc, 0xc3, 0xa5, 0x1d, 0x3e,
    0xb1, 0x1f, 0xc9, 0x3c, 0xc8, 0x61, 0x18, 0x3d, 0x15, 0x24,
    0x6e, 0xbc, 0xc3, 0x5d, 0x8b, 0xbd, 0xdd, 0x98, 0x2b, 0x3d,
    0xe2, 0x6d, 0xb7, 0x3d, 0x33, 0xc4, 0x1f, 0x3e, 0x97, 0x5f,
    0xb0, 0xbc, 0x38, 0x8c, 0x8f, 0x3d, 0x00, 0x31, 0xd4, 0xbd,
    0x82, 0x46, 0x8c, 0xbd, 0xb7, 0xee, 0xd5, 0xbd, 0x6e, 0xad,
    0xc9, 0xbc, 0x0c, 0x98, 0xdb, 0xbd, 0xf8, 0xbf, 0xba, 0xbd,
    0xc4, 0xe4, 0x7a, 0xbc, 0xbd, 0x91, 0xd5, 0xbd, 0x2c, 0xca,
    0x01, 0xbc, 0x3a, 0xfb, 0x9b, 0x3d, 0x24, 0xc8, 0x2f, 0x3e,
    0x55, 0xa3, 0xbf, 0x3d, 0x24, 0x3f, 0xca, 0xbd, 0xcc, 0xa0,
    0x12, 0x3d, 0xdc, 0xd4, 0x96, 0x3c, 0x18, 0x1a, 0x9a, 0xbc,
    0x08, 0x11, 0x6c, 0x3d, 0xe6, 0x30, 0x07, 0x3e, 0x6c, 0x40,
    0xbf, 0x3d, 0x06, 0x05, 0x8a, 0x3d, 0xea, 0x94, 0x06, 0xbe,
    0xe2, 0xb5, 0x9c, 0x3d, 0xde, 0x6e, 0x10, 0xbd, 0x46, 0x73,
    0x49, 0xbd, 0xcd, 0x38, 0x2e, 0xbb, 0xd5, 0x07, 0xdb, 0xbd,
    0xbe, 0xf7, 0x89, 0xbd, 0x13, 0x55, 0x15, 0xbe, 0x5e, 0x0d,
    0x71, 0x3d, 0x11, 0x68, 0x8b, 0x3d, 0x7e, 0x9a, 0xc8, 0x3d,
    0xe7, 0x88, 0x95, 0x3d, 0x61, 0x65, 0x17, 0xbe, 0xa5, 0x89,
    0xf5, 0xbc, 0x28, 0x5f, 0x26, 0x3d, 0xaa, 0x4b, 0xc9, 0xbc,
    0x77, 0x83, 0x16, 0x3e, 0x8b, 0x01, 0x55, 0x3e, 0xab, 0xb8,
    0x9b, 0x3d, 0x11, 0x6d, 0x43, 0x3c, 0xc1, 0xc6, 0xd0, 0xbd,
    0x0e, 0x87, 0x96, 0x3d, 0x78, 0xd5, 0x1b, 0xbd, 0xb3, 0x35,
    0x1a, 0xbe, 0x71, 0x74, 0x7d, 0xbd, 0xb9, 0xf7, 0xef, 0xbd,
    0x3b, 0x28, 0xfe, 0x3c, 0xb0, 0x55, 0x1b, 0xbd, 0x5f, 0xf3,
    0x1c, 0x3d, 0x99, 0xb4, 0x31, 0x3d, 0x41, 0x8e, 0x2d, 0x3e,
    0xd3, 0x8a, 0xa3, 0x3d, 0xd8, 0x41, 0xd7, 0xbc, 0x36, 0xeb,
    0x9a, 0x3c, 0x43, 0xc7, 0x65, 0x3b, 0x09, 0x84, 0x19, 0x3d,
    0x81, 0xb9, 0xa0, 0x3d, 0x2a, 0xa5, 0x24, 0x3e, 0x68, 0x0d,
    0x40, 0x3e, 0xe6, 0xb5, 0x8a, 0x3c, 0x6a, 0x39, 0x1a, 0xbe,
    0x1d, 0x59, 0xaa, 0x3d, 0x13, 0x73, 0x29, 0xbe, 0x71, 0xf6,
    0x18, 0xbd, 0x4f, 0x1b, 0xcf, 0xbd, 0x2b, 0xbe, 0xdd, 0xbd,
    0xba, 0xec, 0x32, 0xbd, 0x91, 0xc8, 0x72, 0xbd, 0x70, 0x80,
    0x55, 0x3d, 0x7f, 0x4a, 0x00, 0x3c, 0xc7, 0xa7, 0xf5, 0x3d,
    0x62, 0xf5, 0xea, 0x3a, 0x3f, 0xea, 0x0b, 0xbe, 0x2e, 0xed,
    0x0b, 0x3d, 0xbd, 0x4f, 0x78, 0xbc, 0xe2, 0x1d, 0x25, 0xbd,
    0xec, 0x72, 0xe7, 0x3d, 0x11, 0x98, 0xd8, 0x3c, 0x66, 0x29,
    0xf6, 0x3d, 0xe2, 0x50, 0x78, 0x3d, 0xdb, 0x16, 0x2b, 0xbe,
    0xcc, 0x22, 0xa6, 0x3c, 0x07, 0x8d, 0x1d, 0xbe, 0x82, 0xb3,
    0xf0, 0xbd, 0x00, 0x45, 0xdc, 0xbd, 0xe6, 0xed, 0x0c, 0xbe,
    0x59, 0x1e, 0x8c, 0xbb, 0x0c, 0x9c, 0x7d, 0x3d, 0xff, 0xc4,
    0xdd, 0xbc, 0xf2, 0xc2, 0x85, 0x3d, 0x1c, 0x63, 0xbc, 0xbc,
    0xbe, 0xb0, 0x27, 0xbc, 0x11, 0xdb, 0x27, 0x3c, 0xf0, 0x2c,
    0xbf, 0xbd, 0xf3, 0x4d, 0x42, 0xbd, 0xff, 0x41, 0xd3, 0xbc,
    0xfa, 0xd6, 0x45, 0xbc, 0x8a, 0x76, 0x40, 0xbd, 0xf5, 0xe5,
    0xed, 0x3c, 0x75, 0x18, 0x48, 0xbd, 0x74, 0x9a, 0x49, 0xbb,
    0x83, 0x0e, 0xa4, 0xbd, 0x9f, 0x4a, 0x8c, 0xbd, 0xc5, 0x5b,
    0x72, 0x3c, 0x9e, 0x27, 0x8e, 0xbd, 0x76, 0xd9, 0x9f, 0x3d,
    0xa1, 0x78, 0x0a, 0xbe, 0xda, 0xeb, 0x8d, 0xbc, 0xb2, 0xa5,
    0xd8, 0xbd, 0xac, 0xf2, 0xfe, 0xbc, 0xb5, 0x84, 0x94, 0xbd,
    0x48, 0xed, 0x8f, 0x3a, 0x0f, 0x10, 0xe2, 0xbc, 0x35, 0x44,
    0xb2, 0x3b, 0xfa, 0x6c, 0x92, 0xbd, 0x7e, 0xe4, 0x0f, 0xbe,
    0xd1, 0x94, 0x06, 0xbd, 0x36, 0xf7, 0xae, 0xbc, 0x9f, 0x2a,
    0x90, 0xbd, 0x32, 0xf5, 0x5d, 0x3b, 0x2b, 0xa5, 0x96, 0xbd,
    0xb5, 0x11, 0xeb, 0x3a, 0x6e, 0x7b, 0x93, 0x3c, 0x5b, 0x26,
    0x39, 0xbd, 0x50, 0xf4, 0x74, 0x3d, 0x20, 0xa1, 0x65, 0xbc,
    0xc2, 0x4d, 0x7c, 0xbd, 0x49, 0xf5, 0x0c, 0x3d, 0xa6, 0xca,
    0x9a, 0xbd, 0x85, 0x83, 0x51, 0xbd, 0xf4, 0x0c, 0x3b, 0xbc,
    0x50, 0x77, 0xe8, 0xbd, 0x74, 0xae, 0x2e, 0x3d, 0xca, 0x1e,
    0x79, 0xbd, 0x2b, 0x04, 0x3a, 0x3d, 0x20, 0xf0, 0x63, 0xbd,
    0xc4, 0x95, 0xe5, 0x3b, 0x5b, 0xfa, 0x30, 0x3d, 0x31, 0xf2,
    0x20, 0xbd, 0x5d, 0x94, 0x18, 0x3d, 0x89, 0x1e, 0x26, 0x3d,
    0x13, 0xa6, 0x2e, 0x3d, 0x86, 0xf9, 0x08, 0xbd, 0xe3, 0x78,
    0x22, 0x3b, 0x0b, 0x96, 0x0d, 0x3a, 0xc8, 0xef, 0x5d, 0xbd,
    0xab, 0x9d, 0x86, 0x3b, 0xc6, 0x81, 0x57, 0x3d, 0xb3, 0x12,
    0xdb, 0xbc, 0x2d, 0xf0, 0xf4, 0xbc, 0xa3, 0xb2, 0x78, 0xbd,
    0x75, 0xff, 0xb2, 0xbc, 0x62, 0x99, 0x89, 0x3d, 0xbe, 0xd5,
    0x47, 0x3c, 0xbf, 0xcc, 0x90, 0xbd, 0xc4, 0x1d, 0xab, 0xbd,
    0xff, 0x7c, 0x21, 0xbc, 0x42, 0x3b, 0x2f, 0x3d, 0x81, 0xad,
    0xc1, 0xbd, 0x6f, 0xed, 0x85, 0xbd, 0x61, 0x7a, 0x20, 0xbc,
    0xa5, 0xed, 0x81, 0x3c, 0x5d, 0x96, 0x72, 0xbc, 0x3a, 0xb5,
    0x12, 0x3c, 0xde, 0x4d, 0xb2, 0x3d, 0x4f, 0x97, 0x87, 0x3d,
    0xaf, 0x06, 0x67, 0xbd, 0x6c, 0x62, 0x67, 0xbd, 0x0b, 0x27,
    0xc7, 0xbd, 0xdb, 0x06, 0x18, 0x3d, 0xb5, 0x2d, 0x30, 0xbd,
    0x61, 0xbc, 0x5c, 0x3d, 0xc4, 0xe4, 0x04, 0xbd, 0xa7, 0xa8,
    0x02, 0x3c, 0x07, 0x38, 0x07, 0xbd, 0x51, 0x15, 0xa0, 0x3a,
    0x40, 0xa8, 0xd7, 0xbc, 0x1d, 0xc4, 0x3b, 0x3d, 0xd5, 0xc0,
    0x49, 0xbd, 0x25, 0x29, 0xa1, 0x3d, 0x06, 0xe8, 0x80, 0xbd,
    0xf1, 0xe8, 0x03, 0x3d, 0xe1, 0x52, 0x2a, 0x3d, 0x16, 0x71,
    0x3f, 0x3d, 0xba, 0x0c, 0xb7, 0x3d, 0xf4, 0x69, 0xb9, 0x3d,
    0x3f, 0x88, 0xac, 0xbc, 0xe7, 0x84, 0x41, 0x3c, 0x72, 0xd2,
    0x36, 0x3d, 0x06, 0x2d, 0x4b, 0xbd, 0x49, 0xd1, 0x0c, 0x3d,
    0x36, 0xfd, 0x14, 0x3d, 0x92, 0x45, 0x0e, 0xbd, 0x8c, 0x75,
    0x6a, 0x3c, 0x2e, 0x41, 0x0e, 0x3d, 0xcf, 0x9b, 0x62, 0xbc,
    0xf3, 0x62, 0x66, 0x3d, 0xf1, 0xa5, 0x67, 0xbd, 0x40, 0xbf,
    0xd0, 0xbd, 0x0f, 0xc7, 0x28, 0xbd, 0x46, 0xb6, 0x49, 0xbd,
    0x78, 0xf1, 0xc1, 0xbc, 0x7d, 0x9e, 0x74, 0xbd, 0xc2, 0x0c,
    0xb4, 0xbd, 0x16, 0xb6, 0x6e, 0xbd, 0x8b, 0x84, 0x80, 0xbc,
    0x37, 0xb0, 0xee, 0xbd, 0xdd, 0x69, 0x94, 0xbd, 0xbb, 0x71,
    0x10, 0xbd, 0x63, 0xa7, 0xd3, 0xbc, 0xf7, 0xd7, 0x01, 0x3d,
    0x53, 0xe2, 0x91, 0x3b, 0xd0, 0x47, 0x5d, 0xbd, 0xe9, 0x28,
    0xdd, 0xbd, 0x70, 0xdc, 0xa5, 0x3c, 0x58, 0x1c, 0x14, 0xbd,
    0xe9, 0x2c, 0x71, 0x3d, 0x77, 0xe2, 0xc2, 0xbb, 0x8e, 0xcd,
    0xee, 0xbd, 0x6e, 0xa9, 0x09, 0xbd, 0x84, 0x97, 0x9e, 0xbd,
    0x41, 0xa6, 0x88, 0xbb, 0x0e, 0x49, 0x1d, 0xbd, 0xce, 0x20,
    0xa5, 0xbd, 0xb5, 0xb4, 0xb9, 0xbc, 0x56, 0xbd, 0x08, 0x3d,
    0xed, 0xfa, 0x69, 0x3e, 0xdd, 0x57, 0xf2, 0x3c, 0x7f, 0x1c,
    0x91, 0x3d, 0x4e, 0x5d, 0x7a, 0xbd, 0x08, 0x4b, 0x46, 0xbd,
    0xad, 0x98, 0x12, 0x3d, 0xa3, 0x51, 0xbb, 0x3d, 0xaf, 0xc0,
    0x2e, 0x3e, 0xff, 0xb8, 0xa1, 0xbd, 0x03, 0xdf, 0x00, 0x3d,
    0xf4, 0xb6, 0xe4, 0xbb, 0x44, 0x15, 0xe1, 0x3d, 0x43, 0x44,
    0xda, 0x3d, 0xa2, 0x31, 0xd4, 0x3b, 0x2c, 0xcf, 0x00, 0x3e,
    0xf5, 0xad, 0x9a, 0xbc, 0xf1, 0x62, 0x71, 0xbd, 0x18, 0xcb,
    0x97, 0xbd, 0x1d, 0x08, 0x83, 0x3d, 0x7c, 0xa9, 0x8d, 0xbd,
    0xfa, 0x80, 0x36, 0x3e, 0x22, 0xbf, 0x35, 0x3d, 0x61, 0xe2,
    0xbb, 0x3d, 0xa6, 0x6b, 0x4d, 0x3d, 0xd6, 0x10, 0x62, 0x3c,
    0x9b, 0x6e, 0xa8, 0x3b, 0x97, 0x37, 0x83, 0xbd, 0x57, 0x25,
    0xe7, 0x3d, 0x22, 0x29, 0x4d, 0xbd, 0xcd, 0xd7, 0xe1, 0x3d,
    0xa7, 0x7f, 0x9a, 0x3d, 0x7f, 0xe1, 0x12, 0xbd, 0x78, 0xf1,
    0x97, 0xbc, 0x54, 0x3b, 0x96, 0x3c, 0x8f, 0xdc, 0xe1, 0x3d,
    0x3a, 0x92, 0x3d, 0x38, 0x6d, 0x95, 0x9b, 0xbc, 0x16, 0x2c,
    0xf4, 0xbc, 0x89, 0x8e, 0xd6, 0x3b, 0x70, 0x9e, 0x38, 0x3d,
    0x1b, 0xa8, 0xa5, 0x3e, 0xbd, 0xdb, 0x5e, 0xbd, 0x6c, 0x24,
    0xb5, 0xbb, 0xd3, 0xdd, 0xe5, 0x3c, 0x21, 0x58, 0x24, 0x3d,
    0x1d, 0x50, 0xb5, 0xbb, 0xb7, 0x8c, 0x03, 0x3c, 0x80, 0x22,
    0xa3, 0x3d, 0xee, 0x33, 0xad, 0x3c, 0x6c, 0x07, 0x0c, 0x3e,
    0x8c, 0x84, 0xf7, 0xbc, 0x7a, 0x1d, 0x8b, 0x3d, 0x21, 0xbd,
    0x84, 0xbc, 0xf6, 0xea, 0x85, 0x3d, 0x3a, 0x5d, 0x9d, 0x3d,
    0x71, 0x3a, 0x0e, 0xbd, 0xdd, 0x8a, 0x90, 0xbc, 0xa0, 0xda,
    0xc6, 0xbc, 0x99, 0x60, 0x3a, 0xbd, 0xff, 0xc7, 0x16, 0xbc,
    0x05, 0xcf, 0x90, 0x3e, 0x32, 0x73, 0x89, 0xbd, 0x7f, 0xa7,
    0x0f, 0xbb, 0x69, 0xf2, 0x54, 0xbd, 0xd5, 0xc0, 0x9e, 0x3d,
    0x84, 0x44, 0x21, 0x3d, 0xba, 0x39, 0x04, 0xbd, 0x2d, 0x29,
    0x26, 0x3e, 0x69, 0xf3, 0x75, 0xbb, 0x71, 0x08, 0xf6, 0x3c,
    0x2b, 0x04, 0xa0, 0xbc, 0x98, 0x7e, 0xa6, 0x3d, 0xcc, 0xf6,
    0x13, 0x3d, 0xf7, 0xad, 0xc4, 0xbc, 0x7f, 0x1d, 0x4e, 0x3d,
    0x94, 0x3c, 0xbf, 0x3d, 0x5e, 0x81, 0x8e, 0x3c, 0xb6, 0x6b,
    0x7d, 0xbd, 0xda, 0xea, 0xee, 0x3c, 0xe4, 0x3d, 0xed, 0xbd,
    0x83, 0x1b, 0x6f, 0x3e, 0x89, 0x6b, 0x5b, 0x3d, 0x73, 0xf3,
    0xd0, 0xbb, 0xbe, 0x8a, 0x9a, 0x3b, 0x6f, 0x31, 0x2c, 0x3b,
    0x06, 0x9d, 0x90, 0x3c, 0x73, 0x77, 0x67, 0xbb, 0x8f, 0x4d,
    0x4e, 0x3e, 0xc2, 0x86, 0x6d, 0xbd, 0x34, 0xbe, 0xb0, 0xbb,
    0x12, 0x9c, 0xaf, 0xbc, 0x26, 0x91, 0x7f, 0x3d, 0x1e, 0x06,
    0xd1, 0x3d, 0x91, 0xf5, 0x92, 0xbd, 0x62, 0xbe, 0xd2, 0x3c,
    0x1f, 0xd3, 0x7c, 0xbd, 0xf7, 0xdb, 0x8f, 0xba, 0x8c, 0xff,
    0x96, 0xbd, 0xf4, 0x28, 0xa8, 0xbc, 0x30, 0xde, 0xc3, 0xbc,
    0x88, 0x60, 0x52, 0x3e, 0xa4, 0x87, 0x0a, 0x3c, 0xba, 0x27,
    0x8f, 0xbc, 0x9c, 0x9d, 0x98, 0x3d, 0x34, 0xf9, 0xb6, 0x3d,
    0x05, 0xb3, 0xcf, 0x3c, 0x4c, 0x11, 0x66, 0xba, 0x9d, 0x2b,
    0x15, 0x3d, 0x6b, 0xaa, 0x4b, 0x3d, 0xdb, 0xbb, 0x69, 0x3d,
    0x54, 0x8f, 0x75, 0x3d, 0x80, 0xd8, 0x13, 0xbd, 0x46, 0x8b,
    0x50, 0x3d, 0xc7, 0xfa, 0x1e, 0xbd, 0x8c, 0x96, 0x87, 0x3d,
    0xc5, 0xe9, 0x1b, 0x3c, 0xbe, 0x94, 0x09, 0xba, 0xcb, 0x09,
    0xd5, 0xbd, 0x11, 0xf5, 0xe9, 0xbd, 0x4f, 0x22, 0x75, 0xbd,
    0xb5, 0x4a, 0x0e, 0x3e, 0x78, 0x70, 0xcd, 0x3d, 0x32, 0x7a,
    0xb4, 0xbd, 0x8a, 0x22, 0xcd, 0xbc, 0xf6, 0x1d, 0x2e, 0x3d,
    0xb2, 0x66, 0x5d, 0xbd, 0xf9, 0x1c, 0xb9, 0x3d, 0x63, 0x80,
    0x19, 0xbd, 0x5d, 0x82, 0x6c, 0x3d, 0xb7, 0xb9, 0xd4, 0x3c,
    0xeb, 0x9b, 0xa6, 0x3d, 0x4d, 0xa2, 0x36, 0x3d, 0x7b, 0xf6,
    0xa2, 0x3d, 0x23, 0x7e, 0x42, 0xbd, 0xa5, 0x03, 0xa7, 0xbc,
    0x27, 0xef, 0x93, 0xbd, 0x92, 0xca, 0x17, 0x3c, 0x69, 0xb8,
    0x89, 0xba, 0xa1, 0xf1, 0xb2, 0x3d, 0x8a, 0xc3, 0xf6,
    0x3b, 0xeb, 0x23, 0x99, 0x3d, 0xcf, 0x22, 0x99, 0xbd
  };

  return AI_HANDLE_PTR(s_network_multitest_weights);
}

